{
  "version": "1.0",
  "truncation": null,
  "padding": null,
  "added_tokens": [
    {
      "id": 0,
      "content": "<|endoftext|>",
      "single_word": false,
      "lstrip": false,
      "rstrip": false,
      "normalized": false,
      "special": true
    },
    {
      "id": 1,
      "content": "<|user|>",
      "single_word": false,
      "lstrip": false,
      "rstrip": false,
      "normalized": false,
      "special": true
    },
    {
      "id": 2,
      "content": "<|assistant|>",
      "single_word": false,
      "lstrip": false,
      "rstrip": false,
      "normalized": false,
      "special": true
    },
    {
      "id": 3,
      "content": "<|system|>",
      "single_word": false,
      "lstrip": false,
      "rstrip": false,
      "normalized": false,
      "special": true
    },
    {
      "id": 4,
      "content": "<|end|>",
      "single_word": false,
      "lstrip": false,
      "rstrip": false,
      "normalized": false,
      "special": true
    }
  ],
  "normalizer": null,
  "pre_tokenizer": {
    "type": "ByteLevel",
    "add_prefix_space": false,
    "trim_offsets": true,
    "use_regex": true
  },
  "post_processor": null,
  "decoder": {
    "type": "ByteLevel",
    "add_prefix_space": true,
    "trim_offsets": true,
    "use_regex": true
  },
  "model": {
    "type": "BPE",
    "dropout": null,
    "unk_token": null,
    "continuing_subword_prefix": null,
    "end_of_word_suffix": null,
    "fuse_unk": false,
    "byte_fallback": false,
    "ignore_merges": false,
    "vocab": {
      "<|endoftext|>": 0,
      "<|user|>": 1,
      "<|assistant|>": 2,
      "<|system|>": 3,
      "<|end|>": 4,
      "!": 5,
      "\"": 6,
      "#": 7,
      "$": 8,
      "%": 9,
      "&": 10,
      "'": 11,
      "(": 12,
      ")": 13,
      "*": 14,
      "+": 15,
      ",": 16,
      "-": 17,
      ".": 18,
      "/": 19,
      "0": 20,
      "1": 21,
      "2": 22,
      "3": 23,
      "4": 24,
      "5": 25,
      "6": 26,
      "7": 27,
      "8": 28,
      "9": 29,
      ":": 30,
      ";": 31,
      "<": 32,
      "=": 33,
      ">": 34,
      "?": 35,
      "@": 36,
      "A": 37,
      "B": 38,
      "C": 39,
      "D": 40,
      "E": 41,
      "F": 42,
      "G": 43,
      "H": 44,
      "I": 45,
      "J": 46,
      "K": 47,
      "L": 48,
      "M": 49,
      "N": 50,
      "O": 51,
      "P": 52,
      "Q": 53,
      "R": 54,
      "S": 55,
      "T": 56,
      "U": 57,
      "V": 58,
      "W": 59,
      "X": 60,
      "Y": 61,
      "Z": 62,
      "[": 63,
      "\\": 64,
      "]": 65,
      "^": 66,
      "_": 67,
      "`": 68,
      "a": 69,
      "b": 70,
      "c": 71,
      "d": 72,
      "e": 73,
      "f": 74,
      "g": 75,
      "h": 76,
      "i": 77,
      "j": 78,
      "k": 79,
      "l": 80,
      "m": 81,
      "n": 82,
      "o": 83,
      "p": 84,
      "q": 85,
      "r": 86,
      "s": 87,
      "t": 88,
      "u": 89,
      "v": 90,
      "w": 91,
      "x": 92,
      "y": 93,
      "z": 94,
      "{": 95,
      "|": 96,
      "}": 97,
      "~": 98,
      "¡": 99,
      "¢": 100,
      "£": 101,
      "¤": 102,
      "¥": 103,
      "¦": 104,
      "§": 105,
      "¨": 106,
      "©": 107,
      "ª": 108,
      "«": 109,
      "¬": 110,
      "®": 111,
      "¯": 112,
      "°": 113,
      "±": 114,
      "²": 115,
      "³": 116,
      "´": 117,
      "µ": 118,
      "¶": 119,
      "·": 120,
      "¸": 121,
      "¹": 122,
      "º": 123,
      "»": 124,
      "¼": 125,
      "½": 126,
      "¾": 127,
      "¿": 128,
      "À": 129,
      "Á": 130,
      "Â": 131,
      "Ã": 132,
      "Ä": 133,
      "Å": 134,
      "Æ": 135,
      "Ç": 136,
      "È": 137,
      "É": 138,
      "Ê": 139,
      "Ë": 140,
      "Ì": 141,
      "Í": 142,
      "Î": 143,
      "Ï": 144,
      "Ð": 145,
      "Ñ": 146,
      "Ò": 147,
      "Ó": 148,
      "Ô": 149,
      "Õ": 150,
      "Ö": 151,
      "×": 152,
      "Ø": 153,
      "Ù": 154,
      "Ú": 155,
      "Û": 156,
      "Ü": 157,
      "Ý": 158,
      "Þ": 159,
      "ß": 160,
      "à": 161,
      "á": 162,
      "â": 163,
      "ã": 164,
      "ä": 165,
      "å": 166,
      "æ": 167,
      "ç": 168,
      "è": 169,
      "é": 170,
      "ê": 171,
      "ë": 172,
      "ì": 173,
      "í": 174,
      "î": 175,
      "ï": 176,
      "ð": 177,
      "ñ": 178,
      "ò": 179,
      "ó": 180,
      "ô": 181,
      "õ": 182,
      "ö": 183,
      "÷": 184,
      "ø": 185,
      "ù": 186,
      "ú": 187,
      "û": 188,
      "ü": 189,
      "ý": 190,
      "þ": 191,
      "ÿ": 192,
      "Ā": 193,
      "ā": 194,
      "Ă": 195,
      "ă": 196,
      "Ą": 197,
      "ą": 198,
      "Ć": 199,
      "ć": 200,
      "Ĉ": 201,
      "ĉ": 202,
      "Ċ": 203,
      "ċ": 204,
      "Č": 205,
      "č": 206,
      "Ď": 207,
      "ď": 208,
      "Đ": 209,
      "đ": 210,
      "Ē": 211,
      "ē": 212,
      "Ĕ": 213,
      "ĕ": 214,
      "Ė": 215,
      "ė": 216,
      "Ę": 217,
      "ę": 218,
      "Ě": 219,
      "ě": 220,
      "Ĝ": 221,
      "ĝ": 222,
      "Ğ": 223,
      "ğ": 224,
      "Ġ": 225,
      "ġ": 226,
      "Ģ": 227,
      "ģ": 228,
      "Ĥ": 229,
      "ĥ": 230,
      "Ħ": 231,
      "ħ": 232,
      "Ĩ": 233,
      "ĩ": 234,
      "Ī": 235,
      "ī": 236,
      "Ĭ": 237,
      "ĭ": 238,
      "Į": 239,
      "į": 240,
      "İ": 241,
      "ı": 242,
      "Ĳ": 243,
      "ĳ": 244,
      "Ĵ": 245,
      "ĵ": 246,
      "Ķ": 247,
      "ķ": 248,
      "ĸ": 249,
      "Ĺ": 250,
      "ĺ": 251,
      "Ļ": 252,
      "ļ": 253,
      "Ľ": 254,
      "ľ": 255,
      "Ŀ": 256,
      "ŀ": 257,
      "Ł": 258,
      "ł": 259,
      "Ń": 260,
      "Ġ\"": 261,
      "nt": 262,
      "\":": 263,
      "le": 264,
      "ir": 265,
      "{\"": 266,
      "čĊ": 267,
      "si": 268,
      "er": 269,
      "la": 270,
      "Ġb": 271,
      "co": 272,
      "es": 273,
      "ro": 274,
      "ent": 275,
      "\",": 276,
      "cont": 277,
      "\"}": 278,
      "role": 279,
      "content": 280,
      "us": 281,
      "sa": 282,
      "li": 283,
      "Ġk": 284,
      "en": 285,
      "ta": 286,
      "in": 287,
      "Ġd": 288,
      "un": 289,
      "ar": 290,
      "Ġy": 291,
      "il": 292,
      "as": 293,
      "ur": 294,
      "on": 295,
      "Ġ1": 296,
      "an": 297,
      "sta": 298,
      "Ġ{\"": 299,
      "\"},": 300,
      "sista": 301,
      "user": 302,
      "assista": 303,
      "assistant": 304,
      "Ġ[": 305,
      "sag": 306,
      "mes": 307,
      "]}": 308,
      "\"}]}": 309,
      "Ġ[{\"": 310,
      "sages": 311,
      "messages": 312,
      "Ġi": 313,
      "Ġm": 314,
      "im": 315,
      "ek": 316,
      "uc": 317,
      "ge": 318,
      "ci": 319,
      "uk": 320,
      ".\"}]}": 321,
      "Ġv": 322,
      "?\"},": 323,
      "ma": 324,
      "Ġs": 325,
      "lim": 326,
      "Ġo": 327,
      "uy": 328,
      "ha": 329,
      "lan": 330,
      "lar": 331,
      "ĠS": 332,
      "Ġbir": 333,
      "ul": 334,
      "Ġa": 335,
      "Ġda": 336,
      "elim": 337,
      "usun": 338,
      "or": 339,
      "Ġka": 340,
      "Ġg": 341,
      "ed": 342,
      "onuc": 343,
      "yi": 344,
      "sin": 345,
      "Dusun": 346,
      "Dusunelim": 347,
      "Ġya": 348,
      "Ġmi": 349,
      "Bil": 350,
      "ler": 351,
      "Bilge": 352,
      "et": 353,
      "ĠSonuc": 354,
      "Ġn": 355,
      "Ä±": 356,
      "Ġbuy": 357,
      "ullan": 358,
      "Ġbuyuk": 359,
      "ici": 360,
      "Ġ=": 361,
      "ullanici": 362,
      "gi": 363,
      "Kullanici": 364,
      "Ġdaha": 365,
      "Ġ2": 366,
      "Ġt": 367,
      "Ġsa": 368,
      "da": 369,
      "Ġh": 370,
      "iz": 371,
      "Ġve": 372,
      "de": 373,
      "tur": 374,
      "ĠB": 375,
      "st": 376,
      "Ġol": 377,
      "uz": 378,
      "iy": 379,
      "um": 380,
      "Ġde": 381,
      "dir": 382,
      "ce": 383,
      "Ġ3": 384,
      "di": 385,
      "ĠĠ": 386,
      "ca": 387,
      "el": 388,
      "Ġbuyuktur": 389,
      "Ġkac": 390,
      "Ġta": 391,
      "ilir": 392,
      "Ġ5": 393,
      "op": 394,
      "em": 395,
      "'t": 396,
      "Ġ4": 397,
      "ri": 398,
      "Ġ6": 399,
      "Ġvar": 400,
      "ki": 401,
      "bilir": 402,
      "Ġz": 403,
      "ya": 404,
      "ĠA": 405,
      "Ġile": 406,
      "ti": 407,
      "Ġ10": 408,
      "Ġge": 409,
      "mak": 410,
      "Ġyap": 411,
      "Ġtop": 412,
      "Ġ8": 413,
      "Ġ7": 414,
      "Ġ+": 415,
      "Ġed": 416,
      "ay": 417,
      "ey": 418,
      "ak": 419,
      "Ġha": 420,
      "dim": 421,
      "tir": 422,
      "lir": 423,
      "Ġp": 424,
      "Ġki": 425,
      "Ġf": 426,
      "lam": 427,
      "ini": 428,
      "Ġ9": 429,
      "\\\"": 430,
      "Ã¼": 431,
      "lik": 432,
      "Ġco": 433,
      "Ġci": 434,
      "ucuk": 435,
      "se": 436,
      "Ġne": 437,
      "mek": 438,
      "ĠT": 439,
      "am": 440,
      "ĠK": 441,
      "Ġic": 442,
      "Ġeder": 443,
      "Ġ0": 444,
      "ok": 445,
      "rint": 446,
      "Ġ12": 447,
      "at": 448,
      "ut": 449,
      "Ġek": 450,
      "az": 451,
      "og": 452,
      "Ġkucuk": 453,
      "angi": 454,
      "Ġgun": 455,
      "Ġned": 456,
      "Ġan": 457,
      "'d": 458,
      "ine": 459,
      ":\\": 460,
      "asi": 461,
      "Ġver": 462,
      "dan": 463,
      "Ġyer": 464,
      "ka": 465,
      ".\"},": 466,
      "lem": 467,
      "list": 468,
      "Ġuz": 469,
      "ol": 470,
      "Ġolur": 471,
      "Ġon": 472,
      "iyor": 473,
      "Ġyar": 474,
      "Ġicin": 475,
      "kar": 476,
      "is": 477,
      "Ġko": 478,
      "ug": 479,
      "Ġ11": 480,
      "ra": 481,
      "Ġse": 482,
      "den": 483,
      "ne": 484,
      "Ġcok": 485,
      "Bir": 486,
      "Ġe": 487,
      "ba": 488,
      "Ġen": 489,
      "Ġc": 490,
      "Ġsayi": 491,
      "``": 492,
      "Ġca": 493,
      "asil": 494,
      "ĠO": 495,
      "Ġba": 496,
      "enin": 497,
      "san": 498,
      "print": 499,
      "Ã§": 500,
      "ĠI": 501,
      "ÅŁ": 502,
      "ĠH": 503,
      "ĠBir": 504,
      "ĠĠĠ": 505,
      "Ġin": 506,
      "Ġtoplar": 507,
      "ĠY": 508,
      "Ġyaz": 509,
      "eni": 510,
      "Ġnasil": 511,
      "Ġnedir": 512,
      "ik": 513,
      "Ġcikar": 514,
      "ere": 515,
      "bi": 516,
      "siy": 517,
      "Ġ-": 518,
      "angisi": 519,
      "ĠE": 520,
      "lari": 521,
      "leri": 522,
      "ĠC": 523,
      "al": 524,
      "Ġbas": 525,
      "Ä±n": 526,
      "Ġdeg": 527,
      "Ġr": 528,
      "yim": 529,
      "ĠD": 530,
      "Ġbil": 531,
      "ĠG": 532,
      "ÄŁ": 533,
      "Ä±m": 534,
      "iye": 535,
      "ani": 536,
      "Ġmisin": 537,
      "len": 538,
      "lis": 539,
      "gin": 540,
      "Ġist": 541,
      "Ġtane": 542,
      "Ġ20": 543,
      "Ġdog": 544,
      "liste": 545,
      "Ġar": 546,
      "Ġsi": 547,
      "ĠM": 548,
      "Ġbu": 549,
      "Ġtoplariz": 550,
      "me": 551,
      "Ġola": 552,
      "sini": 553,
      "iyorum": 554,
      "Ġiyi": 555,
      "Ġso": 556,
      "aman": 557,
      "Ġlir": 558,
      "te": 559,
      "Ġ15": 560,
      "Ġay": 561,
      "Ġel": 562,
      "urk": 563,
      "Ġama": 564,
      "Ġger": 565,
      "Ġgor": 566,
      "ru": 567,
      "unu": 568,
      "yar": 569,
      "Ġet": 570,
      "Ġkere": 571,
      "Ġkar": 572,
      "gu": 573,
      "Ġson": 574,
      "Ġzaman": 575,
      "re": 576,
      "Ġlira": 577,
      "dur": 578,
      "Ġyok": 579,
      "ĠDusunelim": 580,
      "Ġsor": 581,
      "Ġise": 582,
      "Ġher": 583,
      "))": 584,
      "lin": 585,
      "nprint": 586,
      "Ġgi": 587,
      "Ġbilgi": 588,
      "Ġx": 589,
      "Ġbi": 590,
      "siyon": 591,
      "onk": 592,
      "Ġsay": 593,
      "gr": 594,
      "inda": 595,
      "onksiyon": 596,
      "Ġ14": 597,
      "cek": 598,
      "Ġsey": 599,
      "Ġyardim": 600,
      "ana": 601,
      "Ġfonksiyon": 602,
      "Ġ18": 603,
      "Ġkita": 604,
      "ĠOn": 605,
      "Ġsaat": 606,
      "Ġold": 607,
      "nin": 608,
      "yor": 609,
      "ĠBilge": 610,
      "dik": 611,
      "sek": 612,
      "Ġ16": 613,
      "Ġcikarir": 614,
      "Ġelma": 615,
      "Ġzek": 616,
      "Ġkus": 617,
      "Ġvardi": 618,
      "yan": 619,
      "Ġbo": 620,
      "Ġkon": 621,
      "mam": 622,
      "larin": 623,
      "esin": 624,
      "Ġken": 625,
      "Ġcikaririz": 626,
      "Ġ17": 627,
      "Ġkal": 628,
      "Ġadim": 629,
      "```": 630,
      "Ġ13": 631,
      "Ä±r": 632,
      "ĠTurk": 633,
      "abilir": 634,
      "etin": 635,
      "Ġyapay": 636,
      "ĠOnce": 637,
      "na": 638,
      "Ġdon": 639,
      "lama": 640,
      "Ġcalis": 641,
      "Ġkelim": 642,
      "Ġuzer": 643,
      "sayar": 644,
      "Ġolabilir": 645,
      "Ġduy": 646,
      "Ġ19": 647,
      "ede": 648,
      "Ġdegil": 649,
      "Ġtoplam": 650,
      "Ġekle": 651,
      "va": 652,
      "liyor": 653,
      "Ġolma": 654,
      "Ġkucuktur": 655,
      "irim": 656,
      "Ġhangisi": 657,
      "ku": 658,
      "sim": 659,
      "cak": 660,
      "Ġ\\\"": 661,
      "Ġsenin": 662,
      "Ġekler": 663,
      "Ġkitap": 664,
      "stir": 665,
      "ni": 666,
      "Ġsu": 667,
      "Ġdegi": 668,
      "Ġinsan": 669,
      "Ġmu": 670,
      "Ġdogru": 671,
      "gim": 672,
      "Ġmo": 673,
      "Ġbilgisayar": 674,
      "ev": 675,
      "ilim": 676,
      "Ġ#": 677,
      "ĠBen": 678,
      "Ġor": 679,
      "Hangisi": 680,
      "Ġtek": 681,
      "eye": 682,
      "Ġuzerine": 683,
      "dar": 684,
      "ers": 685,
      "Ġkalem": 686,
      "ugun": 687,
      "Ġbul": 688,
      "th": 689,
      "Ġden": 690,
      "eki": 691,
      "Ġyardimci": 692,
      "Ġkadar": 693,
      "kika": 694,
      "Ã¼r": 695,
      ")\"}]}": 696,
      "ac": 697,
      "Ġzeka": 698,
      "Ġdakika": 699,
      "Ġhis": 700,
      "erha": 701,
      "ĠÃ§": 702,
      "Ġyani": 703,
      "Ġanlam": 704,
      "erhaba": 705,
      "urn": 706,
      "Ġogr": 707,
      "uyor": 708,
      "yle": 709,
      "ĠP": 710,
      "eri": 711,
      "Ġma": 712,
      "Ġuy": 713,
      "Ġal": 714,
      "uzel": 715,
      "Ġyuz": 716,
      "Ġgec": 717,
      "ic": 718,
      "Ġgo": 719,
      "Ġpar": 720,
      "Ġprint": 721,
      "sinda": 722,
      "Ġyerde": 723,
      "Ġis": 724,
      "ĠBu": 725,
      "edi": 726,
      "ken": 727,
      "lu": 728,
      "larak": 729,
      "Ġeklersek": 730,
      "eturn": 731,
      "izi": 732,
      "Ġgibi": 733,
      "yth": 734,
      "ython": 735,
      "Ġolarak": 736,
      "Ġekledik": 737,
      "Ġ'": 738,
      "Ġkullan": 739,
      "lerin": 740,
      "Ġreturn": 741,
      "sam": 742,
      "enim": 743,
      "emli": 744,
      "ayir": 745,
      "it": 746,
      "Ã¶": 747,
      "ĠGun": 748,
      "Ġsoru": 749,
      "Ġil": 750,
      "sik": 751,
      "Ġneden": 752,
      "Ġsonra": 753,
      "Ġhiss": 754,
      "luk": 755,
      "ĠN": 756,
      "Ġhar": 757,
      "Ġdemek": 758,
      "Ġce": 759,
      "def": 760,
      "Ġolus": 761,
      "10": 762,
      "ap": 763,
      "gini": 764,
      "Ġbiraz": 765,
      "Ġad": 766,
      "Ġanla": 767,
      "arp": 768,
      "ĠSa": 769,
      "Ġsev": 770,
      "ebilir": 771,
      "tar": 772,
      "Ġhaf": 773,
      "Ġyapar": 774,
      "Sonuc": 775,
      "Ġbol": 776,
      "Ġoldug": 777,
      "Ġdusun": 778,
      "Ġsur": 779,
      "ĠdeÄŁ": 780,
      "Ġogren": 781,
      "ran": 782,
      "tik": 783,
      "Ã¼n": 784,
      "ten": 785,
      "Ġyan": 786,
      "Ġalir": 787,
      "Ġonemli": 788,
      "ark": 789,
      "Ġsag": 790,
      "ust": 791,
      "Ġkur": 792,
      "Ġkim": 793,
      "ger": 794,
      "Ġuzun": 795,
      "mis": 796,
      "Ġ(": 797,
      "inin": 798,
      "Ġsir": 799,
      "Ġak": 800,
      "Ġdeger": 801,
      "sun": 802,
      "Ġdur": 803,
      "Ġolan": 804,
      "Ġyerel": 805,
      "Ġag": 806,
      "Ġhangi": 807,
      "Ġuc": 808,
      "Ġiki": 809,
      "nter": 810,
      "ntern": 811,
      "gun": 812,
      "Ġ`": 813,
      "sistan": 814,
      "Ġasistan": 815,
      "if": 816,
      "kin": 817,
      "Ġur": 818,
      "Ġgelir": 819,
      "bet": 820,
      "Ġmet": 821,
      "Ġguzel": 822,
      "Ġistiyorum": 823,
      "enel": 824,
      "Ġyag": 825,
      "Ġtamam": 826,
      "Ġtanesini": 827,
      "):\\": 828,
      "dece": 829,
      "ĠdeÄŁilim": 830,
      "Ġdi": 831,
      "Ġ100": 832,
      "bah": 833,
      "Ġhem": 834,
      "Ġverir": 835,
      "ada": 836,
      "vet": 837,
      "lidir": 838,
      "larini": 839,
      "Ġzor": 840,
      "bir": 841,
      "oplam": 842,
      "Ġcarp": 843,
      "Ġkaldi": 844,
      "nternet": 845,
      "ez": 846,
      "lara": 847,
      "Ġkisa": 848,
      "man": 849,
      "ĠAma": 850,
      "du": 851,
      "Ġtoplami": 852,
      "python": 853,
      "ĠTurkce": 854,
      "kent": 855,
      "Ġdin": 856,
      "lerim": 857,
      "Ġhiz": 858,
      "Ġduygu": 859,
      "gen": 860,
      "Ġ/": 861,
      "Ġkisi": 862,
      "olu": 863,
      "Ġcali": 864,
      "Ġilk": 865,
      "eyi": 866,
      "os": 867,
      "siz": 868,
      "git": 869,
      "unku": 870,
      "Ġfark": 871,
      "Ġelem": 872,
      "Ġyazdir": 873,
      "Ġbaskent": 874,
      "Ġgerek": 875,
      "Ġgercek": 876,
      "Ġara": 877,
      "lay": 878,
      "larim": 879,
      "Ġaz": 880,
      "eden": 881,
      "Ġ30": 882,
      "ip": 883,
      "mi": 884,
      "up": 885,
      "usu": 886,
      "sayi": 887,
      "Ġsek": 888,
      "Ġkalir": 889,
      "ĠAy": 890,
      "Ġbag": 891,
      "(\\\"": 892,
      "Ġisi": 893,
      "ersen": 894,
      "Ġtamamen": 895,
      "ort": 896,
      ".\\": 897,
      "din": 898,
      "vi": 899,
      "unya": 900,
      "ucu": 901,
      "digin": 902,
      "Ġbaskenti": 903,
      "lÄ±": 904,
      "uv": 905,
      "sar": 906,
      "tan": 907,
      "edir": 908,
      "Ġolmak": 909,
      "ĠadÄ±m": 910,
      "hbet": 911,
      "Ä±ÅŁ": 912,
      "Ä±nda": 913,
      "abi": 914,
      "maz": 915,
      "ĠHer": 916,
      "Ġhava": 917,
      "abilirsin": 918,
      "12": 919,
      "for": 920,
      "Ġliste": 921,
      "Ġkut": 922,
      "unur": 923,
      "Ġonce": 924,
      "Ġkonu": 925,
      "ĠHayir": 926,
      "alÄ±ÅŁ": 927,
      "met": 928,
      "las": 929,
      "layan": 930,
      "lit": 931,
      "Ġpro": 932,
      "esinin": 933,
      "Ġcev": 934,
      "]\\": 935,
      "ga": 936,
      "nternete": 937,
      "ep": 938,
      "fa": 939,
      "Ä±y": 940,
      "dak": 941,
      "ĠKac": 942,
      "azi": 943,
      "Ġsoy": 944,
      "Ġolabilirim": 945,
      "Ġeleman": 946,
      "Ä°": 947,
      "Ġyil": 948,
      "ĠÃ§alÄ±ÅŁ": 949,
      "cim": 950,
      "mur": 951,
      "ara": 952,
      "Ġyuk": 953,
      "Ġgore": 954,
      "Ġkend": 955,
      "Ġagir": 956,
      "liyim": 957,
      ")\\": 958,
      "Ġaci": 959,
      "Ġayni": 960,
      "Ġcalisirim": 961,
      "Ä±l": 962,
      "Ġsadece": 963,
      "Ġederim": 964,
      "ĠTurkiye": 965,
      "ĠbilgisayarÄ±nda": 966,
      "Benim": 967,
      "mem": 968,
      "Ġmut": 969,
      "raf": 970,
      "nek": 971,
      "ze": 972,
      "Ġ*": 973,
      "Ġben": 974,
      "Ġbel": 975,
      "Ġkolay": 976,
      "Ġbasla": 977,
      "Ġcarpi": 978,
      "ndef": 979,
      "ĠU": 980,
      "sina": 981,
      "Merhaba": 982,
      "hir": 983,
      "sidir": 984,
      "Ġvardir": 985,
      "Ġcunku": 986,
      "Ġkelimesinin": 987,
      "):": 988,
      "ĠToplam": 989,
      "kac": 990,
      "Ġsohbet": 991,
      "ĠF": 992,
      "ĠV": 993,
      "Ġlist": 994,
      "Ġbak": 995,
      "maya": 996,
      "ster": 997,
      "Ġkonus": 998,
      "Ġegit": 999,
      "Ġdegis": 1000,
      "inde": 1001,
      "Ġyarar": 1002,
      "Ġparca": 1003,
      "rol": 1004,
      "Ġdil": 1005,
      "Ġsana": 1006,
      "Ġorta": 1007,
      "kur": 1008,
      "vas": 1009,
      "lak": 1010,
      "Ġyur": 1011,
      "Ġyeni": 1012,
      "urada": 1013,
      "hat": 1014,
      "ĠSen": 1015,
      "Ġgenel": 1016,
      "Ġgunler": 1017,
      "Ġseni": 1018,
      "ĠĠĠĠ": 1019,
      "Ġarti": 1020,
      "Ġgoster": 1021,
      "min": 1022,
      "iyet": 1023,
      "Ġkont": 1024,
      "Ã¼rk": 1025,
      "Ġhafif": 1026,
      "Ġyor": 1027,
      "Ġmusun": 1028,
      "Ġ25": 1029,
      "Ġkod": 1030,
      "ft": 1031,
      "nsan": 1032,
      "Ġat": 1033,
      "Ä±t": 1034,
      "ugu": 1035,
      "Ã§e": 1036,
      "Ġkarsi": 1037,
      "Ġkendi": 1038,
      "Ġolusur": 1039,
      "Ġbelir": 1040,
      "Ã¼rkÃ§e": 1041,
      "eler": 1042,
      "Ġtem": 1043,
      "ĠAk": 1044,
      "ber": 1045,
      "Ġburada": 1046,
      "Ġkor": 1047,
      "Ġduz": 1048,
      "Ġbiri": 1049,
      "Ġkay": 1050,
      "Ġbasa": 1051,
      "Ġsicak": 1052,
      "Ġyanit": 1053,
      "Ġyuzden": 1054,
      "ad": 1055,
      "eli": 1056,
      "uyu": 1057,
      "ĠGunes": 1058,
      "Ġkontrol": 1059,
      "bil": 1060,
      "ele": 1061,
      "fir": 1062,
      "rar": 1063,
      "Ġsan": 1064,
      "Li": 1065,
      "Ġyet": 1066,
      "Ġhay": 1067,
      "ketin": 1068,
      "metin": 1069,
      "nSonuc": 1070,
      "oz": 1071,
      "van": 1072,
      "Ġyol": 1073,
      "mayi": 1074,
      "Ġtam": 1075,
      "likte": 1076,
      "Ġister": 1077,
      "Ġdurust": 1078,
      "Ġmat": 1079,
      "digi": 1080,
      "Ġran": 1081,
      "11": 1082,
      "eh": 1083,
      "meye": 1084,
      "lebilir": 1085,
      "Ġkap": 1086,
      "iyim": 1087,
      "deniz": 1088,
      "Ġbaska": 1089,
      "edef": 1090,
      "Ġcalisan": 1091,
      "nliste": 1092,
      "sak": 1093,
      "ari": 1094,
      "ĠIyi": 1095,
      "ĠĠĠĠĠĠĠ": 1096,
      "List": 1097,
      "diz": 1098,
      "men": 1099,
      "Ġlit": 1100,
      "sit": 1101,
      "erj": 1102,
      "esek": 1103,
      "Ġguv": 1104,
      "Ġgel": 1105,
      "Ġhaz": 1106,
      "Ġcik": 1107,
      "ĠEn": 1108,
      "Ġuret": 1109,
      "esekkur": 1110,
      "(\"": 1111,
      "00": 1112,
      "Ġer": 1113,
      "Ġsen": 1114,
      "larda": 1115,
      "iyle": 1116,
      "Ġtan": 1117,
      "Ġyazar": 1118,
      "Ġrange": 1119,
      "asÄ±l": 1120,
      "Ġok": 1121,
      "Ġoz": 1122,
      "bilirsin": 1123,
      "Ġenerj": 1124,
      "ĠEvet": 1125,
      "Ġhissed": 1126,
      "Ġhisset": 1127,
      "Ġlitre": 1128,
      "lamak": 1129,
      "esap": 1130,
      "una": 1131,
      "Ġinternete": 1132,
      "\\\"\\": 1133,
      "Ġharf": 1134,
      "?\"}]}": 1135,
      "Turk": 1136,
      "elam": 1137,
      "ot": 1138,
      "lastir": 1139,
      "listir": 1140,
      "Ġcek": 1141,
      "ĠbaÄŁ": 1142,
      "Ġtekrar": 1143,
      "icim": 1144,
      "ĠZ": 1145,
      "ĠSana": 1146,
      "Ġalan": 1147,
      "ĠDen": 1148,
      "nad": 1149,
      "Ben": 1150,
      "Ġbirlikte": 1151,
      "Ġyak": 1152,
      "digim": 1153,
      "emek": 1154,
      "Ġseyi": 1155,
      "ĠIki": 1156,
      "Ġsifir": 1157,
      "Ġdegilim": 1158,
      "Ġyagmur": 1159,
      "abii": 1160,
      "Ġburadayim": 1161,
      "Ġ>": 1162,
      "Ġkir": 1163,
      "ĠBugun": 1164,
      "akt": 1165,
      "Ġverdim": 1166,
      "Ġmode": 1167,
      "ĠNe": 1168,
      "Elim": 1169,
      "Ġes": 1170,
      "ĠÅŁ": 1171,
      "Ġ\"\\\"": 1172,
      "Ġbar": 1173,
      "Ġdo": 1174,
      "Ġdiye": 1175,
      "arar": 1176,
      "Ġhedef": 1177,
      "Ġ60": 1178,
      "Ġgeze": 1179,
      "Ġhak": 1180,
      "ogu": 1181,
      "Ġren": 1182,
      "Ġayir": 1183,
      "gram": 1184,
      "Ġdinlen": 1185,
      "Ġhizli": 1186,
      "Ġkendine": 1187,
      "Ġgezegen": 1188,
      "Hay": 1189,
      "Sen": 1190,
      "imi": 1191,
      "Ġhesap": 1192,
      "Ġfaz": 1193,
      "Ġhafta": 1194,
      "HayÄ±r": 1195,
      "ah": 1196,
      "bul": 1197,
      "lul": 1198,
      "ram": 1199,
      "tin": 1200,
      "ve": 1201,
      "laya": 1202,
      "enli": 1203,
      "Ġdik": 1204,
      "Ġdav": 1205,
      "Ġyavas": 1206,
      "Ġgece": 1207,
      "Ġcogu": 1208,
      "Ġkoy": 1209,
      "ĠHa": 1210,
      "Ġistersen": 1211,
      "tesi": 1212,
      "Ġoldugu": 1213,
      "Ġasistaniyim": 1214,
      "Ġgercekten": 1215,
      "Ġhayvan": 1216,
      "Ġbardak": 1217,
      "edeki": 1218,
      "ĠnasÄ±l": 1219,
      "ĠBol": 1220,
      "Ġeksi": 1221,
      "Ä±nÄ±": 1222,
      "ĠDunya": 1223,
      "Ã¶r": 1224,
      "Elimde": 1225,
      "Ġfazla": 1226,
      "..": 1227,
      "Ġsin": 1228,
      "end": 1229,
      "eket": 1230,
      "Ġsonuc": 1231,
      "Ġsog": 1232,
      "lere": 1233,
      "Ġgeli": 1234,
      "azen": 1235,
      "ĠYar": 1236,
      "Ġgoz": 1237,
      "Ġcevir": 1238,
      "Hayir": 1239,
      "\\\",": 1240,
      "ema": 1241,
      "lestir": 1242,
      "erek": 1243,
      "Ġcift": 1244,
      "ĠCok": 1245,
      "Ġfonksiyonu": 1246,
      "```\\": 1247,
      "Ġsira": 1248,
      "Turkiye": 1249,
      "Iyi": 1250,
      "dum": 1251,
      "lek": 1252,
      "let": 1253,
      "erin": 1254,
      "onu": 1255,
      "gesi": 1256,
      "Ġ24": 1257,
      "Ġdev": 1258,
      "Ġzarar": 1259,
      "ĠAn": 1260,
      "Ġyerine": 1261,
      "liyorum": 1262,
      "Ã¼nÃ¼": 1263,
      "Ġazal": 1264,
      "Ġsifirdan": 1265,
      "mut": 1266,
      "Ġgir": 1267,
      "ĠTÃ¼rkÃ§e": 1268,
      "Ġcikarsak": 1269,
      "Ġsoyle": 1270,
      "Ġmant": 1271,
      "Ġdemektir": 1272,
      "por": 1273,
      "irsin": 1274,
      "lasik": 1275,
      "stan": 1276,
      "Ġac": 1277,
      "Ġner": 1278,
      "Ġ50": 1279,
      "likle": 1280,
      "Ġetmek": 1281,
      "larina": 1282,
      "Ġbilgisayarinda": 1283,
      "Ġanlamli": 1284,
      "Ġrenk": 1285,
      "erli": 1286,
      "Ġmetin": 1287,
      "Ġ==": 1288,
      "Ġsatir": 1289,
      "Ġgid": 1290,
      "Ġoldugunu": 1291,
      "ĠÃ§alÄ±ÅŁan": 1292,
      "20": 1293,
      "sel": 1294,
      "tÄ±": 1295,
      "ye": 1296,
      "Ġun": 1297,
      "lip": 1298,
      "ina": 1299,
      "haz": 1300,
      "Ġbirkac": 1301,
      "Ġtur": 1302,
      "Ġtut": 1303,
      "Ġkis": 1304,
      "Ã¼k": 1305,
      "Ġgunde": 1306,
      "Ġsehir": 1307,
      "ÅŁtir": 1308,
      "linda": 1309,
      "Ġmola": 1310,
      "Ġhareket": 1311,
      "ĠAyse": 1312,
      "ĠBolgesi": 1313,
      "Gun": 1314,
      "deki": 1315,
      "sÄ±": 1316,
      "Ġif": 1317,
      "yip": 1318,
      "lerini": 1319,
      "umle": 1320,
      "ĠKucuk": 1321,
      "ĠYani": 1322,
      "Ġsayinin": 1323,
      "Ġornek": 1324,
      "Ġarasinda": 1325,
      "Ä°ki": 1326,
      "Ġmodeliyim": 1327,
      "ag": 1328,
      "lum": 1329,
      "ĠR": 1330,
      "ligi": 1331,
      "Ġyas": 1332,
      "Ġyon": 1333,
      "lanir": 1334,
      "larla": 1335,
      "ulur": 1336,
      "Ġtum": 1337,
      "Ġtah": 1338,
      "Ġtaraf": 1339,
      "ĠzÄ±t": 1340,
      "tif": 1341,
      "ayda": 1342,
      "azar": 1343,
      "ĠInsan": 1344,
      "uyorum": 1345,
      "ĠasistanÄ±y": 1346,
      "Ġmeto": 1347,
      "Ġyuksek": 1348,
      "Ġegitil": 1349,
      "ĠgeliÅŁtir": 1350,
      "ĠasistanÄ±yÄ±m": 1351,
      "fta": 1352,
      "medi": 1353,
      "nfor": 1354,
      "ĠmÄ±": 1355,
      "langi": 1356,
      "ĠSon": 1357,
      "Ġbos": 1358,
      "langic": 1359,
      "alim": 1360,
      "kat": 1361,
      "sÄ±n": 1362,
      "ĠkÃ¼": 1363,
      "unda": 1364,
      "Ġspor": 1365,
      "Ġhep": 1366,
      "Ġcihaz": 1367,
      "ĠEger": 1368,
      "Ġbile": 1369,
      "Ġolmaya": 1370,
      "Ġogrenci": 1371,
      "elef": 1372,
      "Ġguven": 1373,
      "nadolu": 1374,
      "ĠÅŁir": 1375,
      "Ġmes": 1376,
      "ĠSenin": 1377,
      "ĠMar": 1378,
      "Iki": 1379,
      "fes": 1380,
      "isi": 1381,
      "kan": 1382,
      "rak": 1383,
      "Ġra": 1384,
      "ĠsÄ±": 1385,
      "Ġguc": 1386,
      "Ġyasinda": 1387,
      "lerden": 1388,
      "yak": 1389,
      "ĠAs": 1390,
      "Ġcoz": 1391,
      "ĠTek": 1392,
      "ĠKar": 1393,
      "azik": 1394,
      "Ġoner": 1395,
      "Ġkot": 1396,
      "Ġdegildir": 1397,
      "Ġaksam": 1398,
      "Beni": 1399,
      "can": 1400,
      "rti": 1401,
      "tr": 1402,
      "uyuk": 1403,
      "Ġter": 1404,
      "ĠeÄŁ": 1405,
      "mez": 1406,
      "))\"}]}": 1407,
      "Ġoldu": 1408,
      "itti": 1409,
      "ematik": 1410,
      "ĠeÄŁitti": 1411,
      "fÄ±r": 1412,
      "mizi": 1413,
      "put": 1414,
      "ley": 1415,
      "Ġbunu": 1416,
      "inca": 1417,
      "Ġdere": 1418,
      "arak": 1419,
      "ĠiÃ§": 1420,
      "Ġkala": 1421,
      "Ġyasa": 1422,
      "ĠBa": 1423,
      "stem": 1424,
      "Ġtat": 1425,
      "Ġhata": 1426,
      "Ġcoc": 1427,
      "Ġnefes": 1428,
      "Ġveren": 1429,
      "Ġsaatte": 1430,
      "Ġboy": 1431,
      "Ġdeniz": 1432,
      "Ġgecir": 1433,
      "Ġolustur": 1434,
      "Ġanlat": 1435,
      "Ġbolge": 1436,
      "Ġyerelde": 1437,
      "Ġduygularim": 1438,
      "Ġprogram": 1439,
      "Ġduzenli": 1440,
      "Ġtanim": 1441,
      "Ġsoguk": 1442,
      "Ġmetodu": 1443,
      "Cok": 1444,
      "Ġkez": 1445,
      "ĠSu": 1446,
      "ĠAli": 1447,
      "Ġcan": 1448,
      "ĠEk": 1449,
      "vap": 1450,
      "Ġbulunur": 1451,
      "sayilar": 1452,
      "Ġbagli": 1453,
      "Sa": 1454,
      "hi": 1455,
      "sen": 1456,
      "tim": 1457,
      "ĠÃ¼r": 1458,
      "unun": 1459,
      "Ġiler": 1460,
      "mali": 1461,
      "madan": 1462,
      "Ġbirak": 1463,
      "Ġbirbir": 1464,
      "Ġnazik": 1465,
      "gili": 1466,
      "ĠAnadolu": 1467,
      "Ġgelen": 1468,
      "Ġgelebilir": 1469,
      "Ġyapti": 1470,
      "Ġedebilir": 1471,
      "ayim": 1472,
      "Ġplan": 1473,
      "Ġpay": 1474,
      "Ä±nÄ±n": 1475,
      "Ġsistem": 1476,
      "ĠMerhaba": 1477,
      "meyi": 1478,
      "Ġbit": 1479,
      "Ġzekayim": 1480,
      "Ġyuzde": 1481,
      "Ġfarkli": 1482,
      "Ġgenelde": 1483,
      "Ġhazir": 1484,
      "Ġdavran": 1485,
      "ĠgeliÅŁtiricim": 1486,
      "ĠÅŁirketin": 1487,
      "ĠsÄ±fÄ±r": 1488,
      "Ġkotu": 1489,
      "ĠiÃ§in": 1490,
      "Ġyereldeyim": 1491,
      "ĠÃ¼rÃ¼nÃ¼": 1492,
      "ĠsÄ±fÄ±rdan": 1493,
      "ket": 1494,
      "lk": 1495,
      "ilde": 1496,
      "Ġbirlestir": 1497,
      "else": 1498,
      "Ġ40": 1499,
      "Ġneler": 1500,
      "Ġcumle": 1501,
      "Ġpara": 1502,
      "Ġsekilde": 1503,
      "Ġmatematik": 1504,
      "ĠbaÄŁlÄ±": 1505,
      "ĠSonra": 1506,
      "cu": 1507,
      "gul": 1508,
      "nde": 1509,
      "ekli": 1510,
      "Ġses": 1511,
      "Ġalis": 1512,
      "Ġayak": 1513,
      "Ġtesekkur": 1514,
      "Ġsakin": 1515,
      "rik": 1516,
      "yal": 1517,
      "maktir": 1518,
      "Ġfayda": 1519,
      "likli": 1520,
      "Ġgunu": 1521,
      "ĠIst": 1522,
      "Ġdogal": 1523,
      "Ġgit": 1524,
      "abilirim": 1525,
      "Ġdondur": 1526,
      "eyecan": 1527,
      "ĠanlamlÄ±": 1528,
      "Ġgerekir": 1529,
      "Ġkutu": 1530,
      "Ġacik": 1531,
      "Ġyuruy": 1532,
      "ehmet": 1533,
      "Ġenerji": 1534,
      "ĠDenizi": 1535,
      "luluk": 1536,
      "ĠkÃ¼Ã§": 1537,
      "alan": 1538,
      "Ġveya": 1539,
      "ĠCum": 1540,
      "ĠGer": 1541,
      "Ġyildiz": 1542,
      "\")": 1543,
      "ati": 1544,
      "esi": 1545,
      "ela": 1546,
      "ilin": 1547,
      "tiy": 1548,
      "Ġbes": 1549,
      "Ġyalan": 1550,
      "Ġtu": 1551,
      "daki": 1552,
      "ĠBunu": 1553,
      "umu": 1554,
      "bilirim": 1555,
      "Ġanah": 1556,
      "Ġveri": 1557,
      "Ġvermek": 1558,
      "Ġicinde": 1559,
      "Ġsec": 1560,
      "siyor": 1561,
      "Ġbaslangic": 1562,
      "Ġdogr": 1563,
      "Ġbulan": 1564,
      "Ġboyle": 1565,
      "Ġsaglar": 1566,
      "Ġsoyler": 1567,
      "aradeniz": 1568,
      "Ġyaklasik": 1569,
      "Ġsinir": 1570,
      "har": 1571,
      "sal": 1572,
      "lardan": 1573,
      "Ġkah": 1574,
      "Ġsabah": 1575,
      "ĠBas": 1576,
      "Ġsayilari": 1577,
      "ĠsayÄ±y": 1578,
      "ĠPazar": 1579,
      "Ġdiger": 1580,
      "ĠsayÄ±yÄ±": 1581,
      "Ha": 1582,
      "mus": 1583,
      "niz": 1584,
      "oyle": 1585,
      "Ġu": 1586,
      "lemek": 1587,
      "Ġbugun": 1588,
      "Ġbenim": 1589,
      "Ġkesin": 1590,
      "Ġoku": 1591,
      "Ġolsa": 1592,
      "Ġgelistir": 1593,
      "asit": 1594,
      "Ġinan": 1595,
      "Ġsoz": 1596,
      "Ä±rÄ±m": 1597,
      "Ġmod": 1598,
      "evsim": 1599,
      "Ġmavi": 1600,
      "Ġyanlis": 1601,
      "Ġmetre": 1602,
      "ĠÃ§alÄ±ÅŁÄ±rÄ±m": 1603,
      "lekt": 1604,
      "stanbul": 1605,
      "Ġyuruyus": 1606,
      "Ġ80": 1607,
      "ĠTabii": 1608,
      "Ġgunes": 1609,
      "Ġesit": 1610,
      "ĠHangi": 1611,
      "Ġkelime": 1612,
      "hur": 1613,
      "isa": 1614,
      "ola": 1615,
      "ren": 1616,
      "to": 1617,
      "ert": 1618,
      "indan": 1619,
      "unde": 1620,
      "anin": 1621,
      "uyun": 1622,
      "Ġkaz": 1623,
      "Ġhic": 1624,
      "Ġolsun": 1625,
      "Ġtav": 1626,
      "kip": 1627,
      "Ġyapma": 1628,
      "Ġ90": 1629,
      "leme": 1630,
      "ĠMehmet": 1631,
      "Ġgorunur": 1632,
      "Ġkare": 1633,
      "Ġzamanla": 1634,
      "Ġherk": 1635,
      "Ġbitir": 1636,
      "ĠsayÄ±nÄ±n": 1637,
      "yanin": 1638,
      "Ġdegerli": 1639,
      "saret": 1640,
      "Ġmutlu": 1641,
      "ĠVeli": 1642,
      "Ġrahat": 1643,
      "PT": 1644,
      "Selam": 1645,
      "dÄ±m": 1646,
      "Ġ%": 1647,
      "Ġ<": 1648,
      "Ġbirik": 1649,
      "sine": 1650,
      "Ġ27": 1651,
      "Ġkos": 1652,
      "Ġboler": 1653,
      "Ġolmasi": 1654,
      "Ġislem": 1655,
      "Ġsorular": 1656,
      "Ġlistedeki": 1657,
      "ĠkÃ¼Ã§Ã¼k": 1658,
      "GPT": 1659,
      "duz": 1660,
      "hri": 1661,
      "htiy": 1662,
      "kun": 1663,
      "Ġas": 1664,
      "sij": 1665,
      "ersin": 1666,
      "unyanin": 1667,
      "uldum": 1668,
      "Ġgay": 1669,
      "Ġ36": 1670,
      "Ġtari": 1671,
      "Ġtopla": 1672,
      "Ġanda": 1673,
      "Ġanlama": 1674,
      "iyorsun": 1675,
      "Ġsayiyi": 1676,
      "mesi": 1677,
      "Ġbilin": 1678,
      "Ġdong": 1679,
      "Ġakil": 1680,
      "Ġisigi": 1681,
      "hatGPT": 1682,
      "Ġgosterir": 1683,
      "Ġsaniye": 1684,
      "ĠzÄ±ttÄ±": 1685,
      "ĠIstersen": 1686,
      "Evet": 1687,
      "egi": 1688,
      "mey": 1689,
      "Ġik": 1690,
      "Ä±sa": 1691,
      "Ġ21": 1692,
      "Ġyapmak": 1693,
      "kara": 1694,
      "Ġselam": 1695,
      "siyle": 1696,
      "rue": 1697,
      "Ġdongu": 1698,
      "Ġorne": 1699,
      "Ġlisteyi": 1700,
      "ĠmÄ±sÄ±n": 1701,
      "Bana": 1702,
      "eb": 1703,
      "ita": 1704,
      "mara": 1705,
      "tek": 1706,
      "nti": 1707,
      "lece": 1708,
      "Ġbek": 1709,
      "Ġbazen": 1710,
      "Ġderin": 1711,
      "Ġisaret": 1712,
      "Ġmer": 1713,
      "Ġmem": 1714,
      "cik": 1715,
      "Ġodak": 1716,
      "Ġkat": 1717,
      "Ġnere": 1718,
      "digini": 1719,
      "Ġtarti": 1720,
      "ayram": 1721,
      "eyim": 1722,
      "Ġhatir": 1723,
      "Ġfi": 1724,
      "\\\")\\": 1725,
      "siye": 1726,
      "ĠCogu": 1727,
      "Ġetki": 1728,
      "Ġsayfa": 1729,
      "Ġinsanlar": 1730,
      "Ġdenir": 1731,
      "Ġyapariz": 1732,
      "bahar": 1733,
      "Ġdevam": 1734,
      "Ġunut": 1735,
      "Ġcihazinda": 1736,
      "elefonu": 1737,
      "Ġanahtar": 1738,
      "Ġodaklan": 1739,
      "En": 1740,
      "ali": 1741,
      "iri": 1742,
      "erat": 1743,
      "ĠkÄ±sa": 1744,
      "Ġatar": 1745,
      "edim": 1746,
      "Ä±k": 1747,
      "ĠKaradeniz": 1748,
      "ĠyardÄ±m": 1749,
      "Ġayri": 1750,
      "Ġcalisir": 1751,
      "range": 1752,
      "Ġortalama": 1753,
      "Gunes": 1754,
      "Bu": 1755,
      "bar": 1756,
      "bon": 1757,
      "gle": 1758,
      "ih": 1759,
      "erim": 1760,
      "Ġbana": 1761,
      "Ġbazi": 1762,
      "Ġbasit": 1763,
      "input": 1764,
      "Ġdagi": 1765,
      "Ġgen": 1766,
      "Ġmidir": 1767,
      "Ġ28": 1768,
      "Ġhuz": 1769,
      "ĠBana": 1770,
      "umkun": 1771,
      "ĠAra": 1772,
      "Ġcicek": 1773,
      "balik": 1774,
      "ĠIlk": 1775,
      "ĠMa": 1776,
      "Ġgeri": 1777,
      "yarak": 1778,
      "Ġanlatir": 1779,
      "Ġsaglayan": 1780,
      "Ġkendini": 1781,
      "Ġdegisir": 1782,
      "Ġdegisken": 1783,
      "Ġoksij": 1784,
      "Ġanlamlisi": 1785,
      "Ġgider": 1786,
      "Ġegitilmis": 1787,
      "Ġgayet": 1788,
      "Ġhuzur": 1789,
      "Ne": 1790,
      "kus": 1791,
      "merhaba": 1792,
      "Ġla": 1793,
      "Ġisim": 1794,
      "ĠSelam": 1795,
      "ulu": 1796,
      "Ġhal": 1797,
      "ĠKend": 1798,
      "ĠEge": 1799,
      "ĠGenel": 1800,
      "Ġalt": 1801,
      "ĠSabah": 1802,
      "15": 1803,
      "18": 1804,
      "Eger": 1805,
      "aha": 1806,
      "cin": 1807,
      "gur": 1808,
      "top": 1809,
      "ĠList": 1810,
      "les": 1811,
      "Ġbed": 1812,
      "Ġkiz": 1813,
      "Ġdilim": 1814,
      "Ġmevsim": 1815,
      "Ġvucu": 1816,
      "masi": 1817,
      "larÄ±m": 1818,
      "Ġdam": 1819,
      "sinin": 1820,
      "Ġyakin": 1821,
      "Ġheyecan": 1822,
      "ize": 1823,
      "ĠBoyle": 1824,
      "dirim": 1825,
      "Ġgetir": 1826,
      "Ġgunun": 1827,
      "Ġyara": 1828,
      "Ġseb": 1829,
      "Ġsef": 1830,
      "Ġelekt": 1831,
      "baga": 1832,
      "Ġcay": 1833,
      "ĠChatGPT": 1834,
      "Ġdegeri": 1835,
      "Ġgorev": 1836,
      "Ġyoksa": 1837,
      "lina": 1838,
      "Ġseyleri": 1839,
      "Ġkalk": 1840,
      "Ġdenge": 1841,
      "Ġmad": 1842,
      "Ġcevap": 1843,
      "Ġsure": 1844,
      "Ġsurekli": 1845,
      "Ġkimsin": 1846,
      "Ġsirketin": 1847,
      "Ġkonuda": 1848,
      "Ġkonusmak": 1849,
      "Ġbelirli": 1850,
      "Ġmath": 1851,
      "Ġozel": 1852,
      "lastirir": 1853,
      "Ġkalabalik": 1854,
      "Ġaliskan": 1855,
      "Ġdondurur": 1856,
      "huriyet": 1857,
      "topla": 1858,
      ")`": 1859,
      "cÄ±": 1860,
      "yse": 1861,
      "ĠBil": 1862,
      "ildiz": 1863,
      "oru": 1864,
      "ĠKur": 1865,
      "ĠKut": 1866,
      "biliyor": 1867,
      "Ġbolun": 1868,
      "Ġegitti": 1869,
      "Ġyorgun": 1870,
      "Ġyeterli": 1871,
      "Ġkirmizi": 1872,
      "ĠolduÄŁ": 1873,
      "ĠyardÄ±mcÄ±": 1874,
      "13": 1875,
      "Dunya": 1876,
      "Seni": 1877,
      "dort": 1878,
      "dugu": 1879,
      "kelim": 1880,
      "rana": 1881,
      "sem": 1882,
      "val": 1883,
      "usur": 1884,
      "Ġkil": 1885,
      "Ġkok": 1886,
      "Ġkeyi": 1887,
      "Ġdok": 1888,
      "Ġdort": 1889,
      "Ġyem": 1890,
      "Ġyog": 1891,
      "Ġser": 1892,
      "Ġkalan": 1893,
      "Ġyasar": 1894,
      "Ġmiyim": 1895,
      "lerle": 1896,
      "Ġ23": 1897,
      "Ġsah": 1898,
      "iyla": 1899,
      "Ġdeyim": 1900,
      "Ġyapabilirim": 1901,
      "eyin": 1902,
      "Ġfik": 1903,
      "utun": 1904,
      "Ġuzak": 1905,
      "Ġonu": 1906,
      "Ġyarisi": 1907,
      "Ġsecim": 1908,
      "ĠIn": 1909,
      "ĠIstanbul": 1910,
      "ĠYeni": 1911,
      "Ġbilm": 1912,
      "Ġgorun": 1913,
      "Ġetraf": 1914,
      "Ġkuslar": 1915,
      "gimi": 1916,
      "Ġdakikada": 1917,
      "Ġsorularini": 1918,
      "ĠNasil": 1919,
      "Ġsevin": 1920,
      "Ġdusunce": 1921,
      "Ġdurum": 1922,
      "Ġurunu": 1923,
      "Ġcalisiyor": 1924,
      "lasir": 1925,
      "ĠAkdeniz": 1926,
      "Ġkayn": 1927,
      "Ġhissediyorum": 1928,
      "ĠYarin": 1929,
      "Ġtahmin": 1930,
      "ĠMarmara": 1931,
      "Ġtutar": 1932,
      "Ġkeyif": 1933,
      "16": 1934,
      "19": 1935,
      "Su": 1936,
      "Tabii": 1937,
      "sum": 1938,
      "ĠÃ¶r": 1939,
      "ire": 1940,
      "Ġyapilir": 1941,
      "Ġhaber": 1942,
      "\\\")\"}]}": 1943,
      "Ã¼ÅŁ": 1944,
      "ĠOk": 1945,
      "Ġkelimeler": 1946,
      "Ġ**": 1947,
      "Ġhaftada": 1948,
      "trin": 1949,
      "Ġdongusu": 1950,
      "ĠÃ¶rnek": 1951,
      ").": 1952,
      "cede": 1953,
      "igin": 1954,
      "mir": 1955,
      "mini": 1956,
      "nun": 1957,
      "uma": 1958,
      "yon": 1959,
      "Ġbesin": 1960,
      "Ġbunun": 1961,
      "sari": 1962,
      "ligin": 1963,
      "Ġkedi": 1964,
      "tal": 1965,
      "inden": 1966,
      "Ġdes": 1967,
      "ĠiÅŁ": 1968,
      "Ġisik": 1969,
      "Ġihtiy": 1970,
      "Ġmin": 1971,
      "uya": 1972,
      "Ġalip": 1973,
      "Ġkav": 1974,
      "ĠyaÅŁ": 1975,
      "Ġyasam": 1976,
      "Ġsaya": 1977,
      "uzey": 1978,
      "opek": 1979,
      "Ġzih": 1980,
      "Ġgeci": 1981,
      "Ġyapa": 1982,
      "Ġfiy": 1983,
      "oky": 1984,
      "Ġverebilir": 1985,
      "Ġyere": 1986,
      "Ġuzuldum": 1987,
      "Ġolursa": 1988,
      "Ġev": 1989,
      "Ġsayilarin": 1990,
      "ĠYer": 1991,
      "ĠYaz": 1992,
      "Ġsik": 1993,
      "rup": 1994,
      "linde": 1995,
      "Ġboz": 1996,
      "Ġkenar": 1997,
      "Ġolmali": 1998,
      "ersem": 1999,
      "ĠSaat": 2000,
      "Ġyagar": 2001,
      "Ġbasari": 2002,
      "Ġistersin": 2003,
      "ĠAnkara": 2004,
      "Ġmantik": 2005,
      "Ġmesela": 2006,
      "leyen": 2007,
      "Ġtesekkurler": 2008,
      "ĠanlamlÄ±sÄ±": 2009,
      "Ġkazan": 2010,
      "Ġneresi": 2011,
      "Ġsahip": 2012,
      "Ġetrafinda": 2013,
      "Ak": 2014,
      "Bugun": 2015,
      "Her": 2016,
      "dÃ¼r": 2017,
      "genin": 2018,
      "idir": 2019,
      "pen": 2020,
      "ĠdÃ¼ÅŁ": 2021,
      "arim": 2022,
      "Ġint": 2023,
      "Ġata": 2024,
      "etre": 2025,
      "Ġters": 2026,
      "Ġ42": 2027,
      "ĠTrue": 2028,
      "okta": 2029,
      "Ġsayisini": 2030,
      "Ġbasina": 2031,
      "ĠYine": 2032,
      "lenir": 2033,
      "Ġiyiyim": 2034,
      "Ġdegistir": 2035,
      "ĠPython": 2036,
      "arih": 2037,
      "...": 2038,
      "sÄ±z": 2039,
      "14": 2040,
      "17": 2041,
      "An": 2042,
      "Insan": 2043,
      "Kar": 2044,
      "dun": 2045,
      "lniz": 2046,
      "od": 2047,
      "tor": 2048,
      "Ġust": 2049,
      "irgul": 2050,
      "silir": 2051,
      "enek": 2052,
      "arsam": 2053,
      "Ġyum": 2054,
      "Ġifa": 2055,
      "max": 2056,
      "Ġotur": 2057,
      "larsin": 2058,
      "larinda": 2059,
      "Ġyat": 2060,
      "Ġyalniz": 2061,
      "lerde": 2062,
      "Ġsak": 2063,
      "Ġ45": 2064,
      "Ġzit": 2065,
      "tis": 2066,
      "Ġyapi": 2067,
      "Ġkiyi": 2068,
      "Ġfor": 2069,
      "amiyorum": 2070,
      "Ġekran": 2071,
      "ogru": 2072,
      "Ġoneri": 2073,
      "ĠOr": 2074,
      "ĠIc": 2075,
      "ĠYan": 2076,
      "lendir": 2077,
      "Ġsim": 2078,
      "Ġbuhar": 2079,
      "Ġolamaz": 2080,
      "Ġkari": 2081,
      "Ġoldugun": 2082,
      "yanus": 2083,
      "Ġduyg": 2084,
      "Ġinsani": 2085,
      "Ġbulmak": 2086,
      "Ġdene": 2087,
      "Ġogret": 2088,
      "Ġuyk": 2089,
      "Ġuygun": 2090,
      "Ġalmak": 2091,
      "Ġkullanabilirsin": 2092,
      "Ġsaglikli": 2093,
      "kinci": 2094,
      "Ġurun": 2095,
      "ĠduygularÄ±m": 2096,
      "Ġbaglar": 2097,
      "Ġkonularda": 2098,
      "Ġproj": 2099,
      "ĠFil": 2100,
      "Ġbasamak": 2101,
      "Ġgeldigin": 2102,
      "Ġdikkat": 2103,
      "ĠHafta": 2104,
      "Ġnerede": 2105,
      "Ġornekleri": 2106,
      "agmur": 2107,
      "Ġtarafindan": 2108,
      "Ġguclu": 2109,
      "Ġderece": 2110,
      "ĠGeriye": 2111,
      "Ġinanc": 2112,
      "Ġmodelim": 2113,
      "Ġornegin": 2114,
      "ĠKendine": 2115,
      "Ġbedenim": 2116,
      "ĠolduÄŁum": 2117,
      ":-": 2118,
      "::-": 2119,
      "Ali": 2120,
      "TÃ¼rkÃ§e": 2121,
      "sp": 2122,
      "Ġeri": 2123,
      "Ġders": 2124,
      "Ġolc": 2125,
      "ĠAg": 2126,
      "Ġtoplayan": 2127,
      "Ġeden": 2128,
      "eyle": 2129,
      "Ä±msÄ±z": 2130,
      "Ġayr": 2131,
      "Ġkarakt": 2132,
      "resi": 2133,
      "Ã¼nÃ¼r": 2134,
      "ĠyanÄ±t": 2135,
      "Ġsirket": 2136,
      "Ġmetni": 2137,
      "Ġerken": 2138,
      "ĠyazarÄ±m": 2139,
      "ĠbaÄŁÄ±msÄ±z": 2140,
      "Ġhesaplayan": 2141,
      "ĠmantÄ±k": 2142,
      "Ġsatirda": 2143,
      "ĠCumhuriyet": 2144,
      "ĠsorularÄ±": 2145,
      "Ġlaz": 2146,
      "kelime": 2147,
      "ĠÃ¶rnekleri": 2148,
      "ĠdÃ¼ÅŁÃ¼nÃ¼r": 2149,
      "ĠyanÄ±tlar": 2150,
      "ĠmantÄ±kta": 2151,
      "Bunu": 2152,
      "[::-": 2153,
      "`,": 2154,
      "agi": 2155,
      "ban": 2156,
      "ec": 2157,
      "ece": 2158,
      "kÃ¼": 2159,
      "nmetin": 2160,
      "yil": 2161,
      "Ġsina": 2162,
      "Ġ\"`": 2163,
      "Ġbeni": 2164,
      "Ġkm": 2165,
      "engu": 2166,
      "Ġdus": 2167,
      "Ġduser": 2168,
      "unca": 2169,
      "Ġyine": 2170,
      "Ġmumkun": 2171,
      "mal": 2172,
      "Ġsuyun": 2173,
      "lardir": 2174,
      "ormal": 2175,
      "Ġkabul": 2176,
      "sinde": 2177,
      "lerine": 2178,
      "etli": 2179,
      "Ġho": 2180,
      "ĠBazen": 2181,
      "ĠBuyuk": 2182,
      "ĠBayram": 2183,
      "uzik": 2184,
      "iyel": 2185,
      "emez": 2186,
      "ĠAh": 2187,
      "ĠAdim": 2188,
      "Ġgeliyor": 2189,
      "Ġtoprak": 2190,
      "Ġhali": 2191,
      "Ã¼z": 2192,
      "Ġgunduz": 2193,
      "lemem": 2194,
      "Ġolurum": 2195,
      "Ġsehri": 2196,
      "ĠeÅŁ": 2197,
      "ĠCan": 2198,
      "liski": 2199,
      "Ġartir": 2200,
      "Ġiyilik": 2201,
      "Ġelse": 2202,
      "Ġgeriye": 2203,
      "Ġkarar": 2204,
      "Ġsonu": 2205,
      "Ġsorabilirsin": 2206,
      "Ġdoner": 2207,
      "Ã¶z": 2208,
      "Ġyaninda": 2209,
      "Ġucar": 2210,
      "Ġdilerim": 2211,
      "Ġkisaca": 2212,
      "gatif": 2213,
      "Ġelemanlari": 2214,
      "memek": 2215,
      "Ġbaslaya": 2216,
      "Ġgenellikle": 2217,
      "Ġtemel": 2218,
      "Ġhissetmem": 2219,
      "Ġdost": 2220,
      "Ġazaltir": 2221,
      "lumbaga": 2222,
      "Ġcocuk": 2223,
      "Ġbirbirine": 2224,
      "Ġpayla": 2225,
      "Ġtartis": 2226,
      "Ġmadde": 2227,
      "Ġaliskanlik": 2228,
      "Ġyogun": 2229,
      "nuniyet": 2230,
      "Ġdestek": 2231,
      "Ġihtiyac": 2232,
      "arsamba": 2233,
      "Ġifade": 2234,
      "enguen": 2235,
      "ĠBayrami": 2236,
      "30": 2237,
      "Python": 2238,
      "aj": 2239,
      "Ãľ": 2240,
      "ĠÄ°ki": 2241,
      "inc": 2242,
      "ĠSeni": 2243,
      "ĠSev": 2244,
      "Ġnokta": 2245,
      "Ġtani": 2246,
      "Ġgez": 2247,
      "Ã¼y": 2248,
      "ĠKisa": 2249,
      "Ġicine": 2250,
      "olun": 2251,
      "ĠBirkac": 2252,
      "Ġistedi": 2253,
      "Ġkelimeyi": 2254,
      "Ġbulur": 2255,
      "Ã¶n": 2256,
      "Ġlistenin": 2257,
      "ĠDeniz": 2258,
      "Ġbosluk": 2259,
      "ĠAsya": 2260,
      "ĠPazartesi": 2261,
      "Ġatarsin": 2262,
      "([": 2263,
      "Al": 2264,
      "av": 2265,
      "aki": 2266,
      "amaz": 2267,
      "be": 2268,
      "buk": 2269,
      "blem": 2270,
      "dini": 2271,
      "ica": 2272,
      "miyor": 2273,
      "nb": 2274,
      "nsayi": 2275,
      "om": 2276,
      "pend": 2277,
      "redir": 2278,
      "toplam": 2279,
      "whi": 2280,
      "yla": 2281,
      "yas": 2282,
      "Ġbuz": 2283,
      "Ġkes": 2284,
      "Ġkiy": 2285,
      "uncu": 2286,
      "artesi": 2287,
      "Ġyesi": 2288,
      "urta": 2289,
      "urust": 2290,
      "Ġikinci": 2291,
      "Ġmor": 2292,
      "Ġmey": 2293,
      "Ġmak": 2294,
      "Ġsum": 2295,
      "Ġoto": 2296,
      "uyla": 2297,
      "lariyla": 2298,
      "ulut": 2299,
      "Ġayi": 2300,
      "Ġgul": 2301,
      "Ġgaz": 2302,
      "edik": 2303,
      "Ġnormal": 2304,
      "Ġton": 2305,
      "Ġtuz": 2306,
      "Ġhas": 2307,
      "cev": 2308,
      "Ġ35": 2309,
      "Ġkactir": 2310,
      "Ġtak": 2311,
      "Ġtas": 2312,
      "ĠAv": 2313,
      "Ġ+=": 2314,
      "ayla": 2315,
      "Ġkibar": 2316,
      "Ġekrana": 2317,
      "Ġyari": 2318,
      "Ġez": 2319,
      "Ġbalik": 2320,
      "bit": 2321,
      "Ä±na": 2322,
      "ĠDev": 2323,
      "ĠGuzel": 2324,
      "Ġgorus": 2325,
      "Ġetme": 2326,
      "Ġsaygili": 2327,
      "Ġseye": 2328,
      "larinin": 2329,
      "Ġdonem": 2330,
      "Ġcalisma": 2331,
      "Ġmoti": 2332,
      "Ġbulun": 2333,
      "ĠÃ§Ã¼n": 2334,
      "Ġaldim": 2335,
      "Ġgecti": 2336,
      "icdan": 2337,
      "Ġanlasilir": 2338,
      "ĠSali": 2339,
      "ĠSadece": 2340,
      "Ġoldugum": 2341,
      "Ġsurer": 2342,
      "Ġogrenmek": 2343,
      "osya": 2344,
      "Ġyazdiririm": 2345,
      "Ġproblem": 2346,
      "Ġsoylerim": 2347,
      "Ġkolaylastirir": 2348,
      "ĠUz": 2349,
      "Ġkorur": 2350,
      "Ġyanitlamak": 2351,
      "Ġcevirir": 2352,
      "Ġazalt": 2353,
      "Ġarasindaki": 2354,
      "Ġtatli": 2355,
      "Ġcanli": 2356,
      "ĠEkim": 2357,
      "Ġbitki": 2358,
      "Ġfaydali": 2359,
      "Ġkahve": 2360,
      "ĠBaska": 2361,
      "olata": 2362,
      "Ġherkes": 2363,
      "Ġiklim": 2364,
      "ebrik": 2365,
      "Ġgenis": 2366,
      "dortgen": 2367,
      "Ġfikir": 2368,
      "ĠyaÅŁÄ±m": 2369,
      "okyuz": 2370,
      "ĠYaninda": 2371,
      "Ġgeldigince": 2372,
      "nuniyetle": 2373,
      "while": 2374,
      "ĠÃ§Ã¼nkÃ¼": 2375,
      "!\"}]}": 2376,
      "Peki": 2377,
      "Senin": 2378,
      "aber": 2379,
      "dek": 2380,
      "lugu": 2381,
      "pt": 2382,
      "ĠbÃ¼y": 2383,
      "lif": 2384,
      "Ġdunya": 2385,
      "ĠdÃ¶n": 2386,
      "landir": 2387,
      "ĠSo": 2388,
      "Ġolup": 2389,
      "Ġ48": 2390,
      "Ġyapabilirsin": 2391,
      "Ġhaya": 2392,
      "ametre": 2393,
      "Ġkoyar": 2394,
      "Ġsayilar": 2395,
      "ĠMer": 2396,
      "ĠPeki": 2397,
      "Ġmax": 2398,
      "ebilirsin": 2399,
      "Ġtemiz": 2400,
      "Ġsoyley": 2401,
      "dÃ¼ren": 2402,
      "ĠdÃ¶ndÃ¼ren": 2403,
      "Er": 2404,
      "]))": 2405,
      "ayi": 2406,
      "der": 2407,
      "dedir": 2408,
      "ke": 2409,
      "kek": 2410,
      "lo": 2411,
      "luyor": 2412,
      "menin": 2413,
      "pi": 2414,
      "po": 2415,
      "Ìĩ": 2416,
      "ĠJ": 2417,
      "ntim": 2418,
      "Ġbuna": 2419,
      "ligini": 2420,
      "Ġkan": 2421,
      "Ġkuzey": 2422,
      "taki": 2423,
      "inci": 2424,
      "Ġyo": 2425,
      "Ġyemek": 2426,
      "ildi": 2427,
      "urur": 2428,
      "Ġisin": 2429,
      "Ġice": 2430,
      "Ġsun": 2431,
      "Ġoy": 2432,
      "uyle": 2433,
      "uysa": 2434,
      "Ġkati": 2435,
      "yiz": 2436,
      "Ġyagi": 2437,
      "etik": 2438,
      "Ġsayar": 2439,
      "izik": 2440,
      "ĠBur": 2441,
      "emir": 2442,
      "emiyorum": 2443,
      "tigi": 2444,
      "tigin": 2445,
      "maktan": 2446,
      "Ġtoplum": 2447,
      "eyne": 2448,
      "Ġhayal": 2449,
      "dimi": 2450,
      "mektir": 2451,
      "Ġvermeye": 2452,
      "isir": 2453,
      "Ġyazilim": 2454,
      "Ġnasilsin": 2455,
      "ĠEs": 2456,
      "Ġolabil": 2457,
      "Ġsonunda": 2458,
      "Ġseyler": 2459,
      "Ġseydir": 2460,
      "Ġolduk": 2461,
      "mamizi": 2462,
      "larindan": 2463,
      "Ġdegilsin": 2464,
      "Ġolmaz": 2465,
      "Ġseninle": 2466,
      "ĠBenim": 2467,
      "Ġbulut": 2468,
      "ĠÃ§ev": 2469,
      "Ġuyku": 2470,
      "Ġyuzer": 2471,
      "Ġkullanarak": 2472,
      "ĠGunde": 2473,
      "append": 2474,
      "Ġsevgi": 2475,
      "Ġkural": 2476,
      "Ġdegerini": 2477,
      "Ġhemen": 2478,
      "Ġhizlidir": 2479,
      "Ġyazdirmak": 2480,
      "edeniyet": 2481,
      "mistir": 2482,
      "Ġcevre": 2483,
      "Ġyorum": 2484,
      "Ġkarsilastir": 2485,
      "ĠAksam": 2486,
      "Ġbasama": 2487,
      "Ġyanitlar": 2488,
      "Ġisterim": 2489,
      "Ġbaskalarina": 2490,
      "Ġhazirim": 2491,
      "aktor": 2492,
      "Ġeski": 2493,
      "Ġdiyebilirim": 2494,
      "Ġacar": 2495,
      "Ġyonet": 2496,
      "ĠTekir": 2497,
      "Ġcocug": 2498,
      "Ġnelerdir": 2499,
      "Ġisaretiyle": 2500,
      "Ġoksijen": 2501,
      "Ġdamla": 2502,
      "Ġdeyimi": 2503,
      "Ġkeyifli": 2504,
      "Ġyumurta": 2505,
      "Ġtartismali": 2506,
      "Ġyesil": 2507,
      "),": 2508,
      "AI": 2509,
      "Don": 2510,
      "Sev": 2511,
      "buyuk": 2512,
      "dÄ±": 2513,
      "ilen": 2514,
      "nim": 2515,
      "perat": 2516,
      "ver": 2517,
      "ing": 2518,
      "Ġoperat": 2519,
      "orta": 2520,
      "Ġ32": 2521,
      "elma": 2522,
      "Ġ63": 2523,
      "ĠKen": 2524,
      "Ġevet": 2525,
      "ĠYap": 2526,
      "ĠCa": 2527,
      "ĠCi": 2528,
      "ĠGo": 2529,
      "Ġdogrudan": 2530,
      "Ġdegisk": 2531,
      "Ġgidiyor": 2532,
      "ĠGercek": 2533,
      "penAI": 2534,
      "Adin": 2535,
      "Is": 2536,
      "\\\":": 2537,
      "bu": 2538,
      "cil": 2539,
      "cul": 2540,
      "diy": 2541,
      "fet": 2542,
      "ila": 2543,
      "itif": 2544,
      "jo": 2545,
      "kinda": 2546,
      "lgi": 2547,
      "mana": 2548,
      "meden": 2549,
      "nem": 2550,
      "omet": 2551,
      "port": 2552,
      "seni": 2553,
      "unt": 2554,
      "veler": 2555,
      "ntem": 2556,
      "lecek": 2557,
      "leyip": 2558,
      "lasi": 2559,
      "labilir": 2560,
      "Ġbe": 2561,
      "Ġkopek": 2562,
      "ince": 2563,
      "Ġdiy": 2564,
      "Ġdolu": 2565,
      "armut": 2566,
      "Ġyedi": 2567,
      "Ġyuv": 2568,
      "Ġiliski": 2569,
      "Ġmuzik": 2570,
      "Ġmedeniyet": 2571,
      "ciger": 2572,
      "Ġvirgul": 2573,
      "Ġstrin": 2574,
      "Ġogun": 2575,
      "uyum": 2576,
      "ultur": 2577,
      "Ġdayan": 2578,
      "Ġkalip": 2579,
      "Ġgokyuz": 2580,
      "yici": 2581,
      "sinca": 2582,
      "leriyle": 2583,
      "Ġnot": 2584,
      "Ġ22": 2585,
      "Ġteh": 2586,
      "Ġtelefonu": 2587,
      "Ġsade": 2588,
      "dalet": 2589,
      "ĠBun": 2590,
      "ĠBuz": 2591,
      "ĠBog": 2592,
      "sten": 2593,
      "stigin": 2594,
      "cele": 2595,
      "Ġtakip": 2596,
      "rica": 2597,
      "ĠAf": 2598,
      "Ġyapan": 2599,
      "ĠkiÅŁ": 2600,
      "Ġfir": 2601,
      "Ã¼m": 2602,
      "ĠKa": 2603,
      "ĠKap": 2604,
      "Ġicmek": 2605,
      "Ġekmek": 2606,
      "ogle": 2607,
      "lemeyi": 2608,
      "Ġuza": 2609,
      "Ġona": 2610,
      "Ġonun": 2611,
      "Ġonlari": 2612,
      "Ġyarin": 2613,
      "ratik": 2614,
      "Ġsayisi": 2615,
      "Ġcalist": 2616,
      "ĠOpenAI": 2617,
      "Ġbaba": 2618,
      "ĠIs": 2619,
      "ĠBiraz": 2620,
      "ĠYuz": 2621,
      "Ġsiki": 2622,
      "Ġ150": 2623,
      "Ġaydin": 2624,
      "Ġelde": 2625,
      "Ġamacim": 2626,
      "))\\": 2627,
      "Ġtoplamini": 2628,
      "Ġeklemek": 2629,
      "Ġolmayan": 2630,
      "Ġhangisidir": 2631,
      "nif": 2632,
      "Ġinsana": 2633,
      "gimiz": 2634,
      "evazi": 2635,
      "Ġanlami": 2636,
      "ĠanlamÄ±na": 2637,
      "Ġgecer": 2638,
      "Ġgotur": 2639,
      "Ġparlak": 2640,
      "ĠGuney": 2641,
      "Ġolusan": 2642,
      "Ġanlata": 2643,
      "Ġsevdigin": 2644,
      "Ġalirsin": 2645,
      "Ġdegerleri": 2646,
      "Ġagac": 2647,
      "Ġucabilir": 2648,
      "Ġikisi": 2649,
      "Ġzorunda": 2650,
      "Ġdinlemek": 2651,
      "Ġseklinde": 2652,
      "abiliyor": 2653,
      "Ġmutluluk": 2654,
      "Ġbaslamak": 2655,
      "Ġkork": 2656,
      "Ġsaniy": 2657,
      "Ġyeter": 2658,
      "ozitif": 2659,
      "Ġerkek": 2660,
      "ĠZaman": 2661,
      "Ġtutmak": 2662,
      "Ġkismi": 2663,
      "elefon": 2664,
      "Ġkutuda": 2665,
      "ĠCumartesi": 2666,
      "Ġhicbir": 2667,
      "Ġtavuk": 2668,
      "Ġherkesin": 2669,
      "Ġboleriz": 2670,
      "Ġaslinda": 2671,
      "Ġmerak": 2672,
      "baharda": 2673,
      "ĠGenelde": 2674,
      "Ġaltinda": 2675,
      "Ġsefkat": 2676,
      "valti": 2677,
      "Ġcalisiyorum": 2678,
      "rupa": 2679,
      "ersembe": 2680,
      "ÃľÃ§": 2681,
      "cevre": 2682,
      "ĠAvrupa": 2683,
      "Ġyontem": 2684,
      "iziksel": 2685,
      "eynep": 2686,
      "Ġbasamagi": 2687,
      "aktoriyel": 2688,
      "Ġcocuga": 2689,
      "join": 2690,
      "())": 2691,
      "50": 2692,
      "Ay": 2693,
      "Hangi": 2694,
      "Kim": 2695,
      "gil": 2696,
      "set": 2697,
      "irmizi": 2698,
      "Ġdosya": 2699,
      "arki": 2700,
      "Ġ[\\\"": 2701,
      "Ġbuyugu": 2702,
      "gisayar": 2703,
      "turk": 2704,
      "Ġfarki": 2705,
      "\\\"]\\": 2706,
      "selam": 2707,
      "ĠTum": 2708,
      "Ġedersin": 2709,
      "Ġ120": 2710,
      "alse": 2711,
      "Ġ200": 2712,
      "ĠMut": 2713,
      "icinin": 2714,
      "Ġkullanilir": 2715,
      "Ä±lÄ±r": 2716,
      "Listenin": 2717,
      "ĠZor": 2718,
      "Ġdikdortgen": 2719,
      "ĠYardim": 2720,
      "Sabah": 2721,
      "harf": 2722,
      "Ġkaresini": 2723,
      "ĠKutu": 2724,
      "split": 2725,
      "ĠlazÄ±m": 2726,
      "ĠAhmet": 2727,
      "ĠSohbet": 2728,
      "Ġoperatoru": 2729,
      "ĠGoogle": 2730,
      "'.": 2731,
      "**": 2732,
      "As": 2733,
      "Mut": 2734,
      "Yeni": 2735,
      "aci": 2736,
      "amam": 2737,
      "bus": 2738,
      "bel": 2739,
      "bol": 2740,
      "dÄ±r": 2741,
      "dugun": 2742,
      "esim": 2743,
      "elidir": 2744,
      "goz": 2745,
      "ika": 2746,
      "icak": 2747,
      "mp": 2748,
      "not": 2749,
      "nsayilar": 2750,
      "nelse": 2751,
      "rani": 2752,
      "tÃ¼": 2753,
      "ulak": 2754,
      "vim": 2755,
      "zmir": 2756,
      "Ġus": 2757,
      "Ġlen": 2758,
      "Ġiri": 2759,
      "erde": 2760,
      "lat": 2761,
      "layarak": 2762,
      "Ġbl": 2763,
      "Ġbiz": 2764,
      "Ġbug": 2765,
      "cok": 2766,
      "ron": 2767,
      "Ġkg": 2768,
      "Ġkuc": 2769,
      "Ġkey": 2770,
      "Ġkani": 2771,
      "Ġkultur": 2772,
      "ene": 2773,
      "tabilir": 2774,
      "taturk": 2775,
      "indik": 2776,
      "Ġdol": 2777,
      "Ġyen": 2778,
      "Ġmerhaba": 2779,
      "uksek": 2780,
      "madi": 2781,
      "Ġsuyu": 2782,
      "Ġogle": 2783,
      "lanan": 2784,
      "Ġbirimi": 2785,
      "Ġbircok": 2786,
      "Ġah": 2787,
      "Ġav": 2788,
      "Ġati": 2789,
      "Ġasal": 2790,
      "usunda": 2791,
      "Ġgol": 2792,
      "sinden": 2793,
      "Ġyasim": 2794,
      "Ġneyin": 2795,
      "Ġsari": 2796,
      "izli": 2797,
      "desi": 2798,
      "umerat": 2799,
      "diok": 2800,
      "emm": 2801,
      "kisi": 2802,
      "kiler": 2803,
      "yad": 2804,
      "yaz": 2805,
      "ĠAl": 2806,
      "ĠAt": 2807,
      "ĠyaptÄ±": 2808,
      "Ġtopar": 2809,
      "Ġ72": 2810,
      "Ġhav": 2811,
      "Ġkisiye": 2812,
      "Ġfindik": 2813,
      "Ġnegatif": 2814,
      "Ġeksik": 2815,
      "Ġani": 2816,
      "Ġvermemek": 2817,
      "Ġuzere": 2818,
      "Ġuzgun": 2819,
      "Ġoncek": 2820,
      "iyorsa": 2821,
      "Ġelif": 2822,
      "Ġcag": 2823,
      "Ġcant": 2824,
      "Ġinput": 2825,
      "ĠYa": 2826,
      "ĠYildiz": 2827,
      "ĠYagmur": 2828,
      "Ġyazi": 2829,
      "Ġyazmak": 2830,
      "Ġnasildir": 2831,
      "ĠEr": 2832,
      "alniz": 2833,
      "Ġbaslar": 2834,
      "ĠDogru": 2835,
      "ÄŁini": 2836,
      "Ġdogum": 2837,
      "Ġarka": 2838,
      "mesidir": 2839,
      "Ġiyidir": 2840,
      "Ġgorur": 2841,
      "Ġetik": 2842,
      "Ġkarbon": 2843,
      "rep": 2844,
      "Ġyoktur": 2845,
      "Ġsorun": 2846,
      "linden": 2847,
      "gren": 2848,
      "Ġ180": 2849,
      "Ġkonuyu": 2850,
      "Ġadimlar": 2851,
      "lamaz": 2852,
      "Ġcalismak": 2853,
      "Ġkelimedir": 2854,
      "Ġuzerinde": 2855,
      "Ġsuda": 2856,
      "Ġinsanlara": 2857,
      "Ġmudur": 2858,
      "Ġdeneyim": 2859,
      "Ġdakikadir": 2860,
      "ĠÃ§arp": 2861,
      "Ġuyan": 2862,
      "icbir": 2863,
      "Ġislak": 2864,
      "ludur": 2865,
      "Ġkullanmak": 2866,
      "lerinin": 2867,
      "lerinde": 2868,
      "Ġsorularina": 2869,
      "Ġilgili": 2870,
      "siklet": 2871,
      "Ġsonraki": 2872,
      "ĠNeden": 2873,
      "Ġharika": 2874,
      "Ġadil": 2875,
      "ĠSayi": 2876,
      "ebiliriz": 2877,
      "Ġalirim": 2878,
      "Ġonemlidir": 2879,
      "Ġasistanim": 2880,
      "Ġdisari": 2881,
      "manin": 2882,
      "lerimiz": 2883,
      "Ġilke": 2884,
      "Ġelemani": 2885,
      "Ġseker": 2886,
      "ĠAyrica": 2887,
      "Ġhavada": 2888,
      "Ġsoyluyor": 2889,
      "Ġyildir": 2890,
      "Ġsicaklik": 2891,
      "Ġdurustluk": 2892,
      "Ġcikolata": 2893,
      "Ġuretir": 2894,
      "Ġozgur": 2895,
      "ĠZeynep": 2896,
      "digimiz": 2897,
      "Ġhakkinda": 2898,
      "Ġdinlenmek": 2899,
      "ramdir": 2900,
      "layabilir": 2901,
      "Ġhayvandir": 2902,
      "Ġsonucu": 2903,
      "Ġnered": 2904,
      "Ġtahta": 2905,
      "Ġegitildim": 2906,
      "medigim": 2907,
      "tres": 2908,
      "Ġyasaya": 2909,
      "Ġtatil": 2910,
      "Ġolusturur": 2911,
      "Ġbolgede": 2912,
      "Ġprogramim": 2913,
      "Ġsistemi": 2914,
      "Ġacikca": 2915,
      "Ġyalanci": 2916,
      "Ġgelistiricim": 2917,
      "Ġunutma": 2918,
      "Ġhuzurlu": 2919,
      "Ġsebze": 2920,
      "Ġserce": 2921,
      "Ġkaynak": 2922,
      "Ġgeciyor": 2923,
      "Ġfiyat": 2924,
      "Ġverebilirim": 2925,
      "ĠYerel": 2926,
      "Ġyalnizca": 2927,
      "Ġkiyisi": 2928,
      "Ġsimdi": 2929,
      "Ġogretmen": 2930,
      "Ġmakine": 2931,
      "Ġyarisini": 2932,
      "Ġiklimi": 2933,
      "ometre": 2934,
      "Ġyuvar": 2935,
      "Ġtehlik": 2936,
      "Ġuzaga": 2937,
      "umerate": 2938,
      "Genel": 2939,
      "Tesekkur": 2940,
      "sort": 2941,
      "Ġ{": 2942,
      "ntez": 2943,
      "Ġber": 2944,
      "ĠsÃ¶": 2945,
      "sindan": 2946,
      "Ġbuyu": 2947,
      "ĠBit": 2948,
      "ĠAtaturk": 2949,
      "lamas": 2950,
      "ĠTesekkur": 2951,
      "kare": 2952,
      "ĠOz": 2953,
      "ĠyazÄ±lÄ±r": 2954,
      "ĠCarsamba": 2955,
      "ĠDemir": 2956,
      "Ġsonuna": 2957,
      "Ġadimi": 2958,
      "Ġalma": 2959,
      "Ġolani": 2960,
      "ift": 2961,
      "Ġdisinda": 2962,
      "ĠUy": 2963,
      "Ġortalamas": 2964,
      "Ġyazarsin": 2965,
      "Ġayirir": 2966,
      "ĠYarim": 2967,
      "Ġbirlestiririm": 2968,
      "Ġparantez": 2969,
      "egis": 2970,
      "meyen": 2971,
      "Ġkarakter": 2972,
      "Ġhobi": 2973,
      "!\"},": 2974,
      "'s": 2975,
      ".'": 2976,
      "Ba": 2977,
      "Guzel": 2978,
      "Yildiz": 2979,
      "alin": 2980,
      "bam": 2981,
      "dro": 2982,
      "ebil": 2983,
      "fini": 2984,
      "iyi": 2985,
      "ith": 2986,
      "miyorum": 2987,
      "oj": 2988,
      "olan": 2989,
      "rt": 2990,
      "sli": 2991,
      "smin": 2992,
      "teki": 2993,
      "ue": 2994,
      "udur": 2995,
      "with": 2996,
      "ydi": 2997,
      "Ġum": 2998,
      "Ġem": 2999,
      "Ġemek": 3000,
      "entez": 3001,
      "uslar": 3002,
      "Ġkum": 3003,
      "tak": 3004,
      "tam": 3005,
      "indeki": 3006,
      "Ġdan": 3007,
      "Ġduzel": 3008,
      "Ġdedi": 3009,
      "Ġdizi": 3010,
      "Ġyi": 3011,
      "Ġyolu": 3012,
      "onya": 3013,
      "anim": 3014,
      "Ġinternet": 3015,
      "get": 3016,
      "cih": 3017,
      "Ġvaki": 3018,
      "Ġvicdan": 3019,
      "masini": 3020,
      "Ġsut": 3021,
      "Ġod": 3022,
      "Ġoda": 3023,
      "lanma": 3024,
      "ĠSina": 3025,
      "Ġasag": 3026,
      "Ġaca": 3027,
      "Ġkali": 3028,
      "Ġgurur": 3029,
      "eder": 3030,
      "since": 3031,
      "Ġyay": 3032,
      "Ġnet": 3033,
      "giz": 3034,
      "Ġtok": 3035,
      "ĠBazi": 3036,
      "ĠBuna": 3037,
      "uzluk": 3038,
      "umluluk": 3039,
      "Ġdepo": 3040,
      "dise": 3041,
      "emem": 3042,
      "Ġvarsa": 3043,
      "kis": 3044,
      "ĠAm": 3045,
      "ĠAnt": 3046,
      "Ġyapmaya": 3047,
      "Ġhala": 3048,
      "Ġpeki": 3049,
      "Ġkilar": 3050,
      "Ġkisin": 3051,
      "Ġfil": 3052,
      "Ġfiziksel": 3053,
      "sehir": 3054,
      "Ġneyi": 3055,
      "Ġnehri": 3056,
      "ĠTelefonu": 3057,
      "ĠTav": 3058,
      "ĠKo": 3059,
      "okkus": 3060,
      "ator": 3061,
      "azir": 3062,
      "Ġgune": 3063,
      "Ġguney": 3064,
      "Ġgunleri": 3065,
      "Ġondan": 3066,
      "Ġonunde": 3067,
      "iyoruz": 3068,
      "Ġkomut": 3069,
      "Ġince": 3070,
      "Ġtoplarsin": 3071,
      "bilece": 3072,
      "ĠCunku": 3073,
      "Ġrut": 3074,
      "Ġbilmek": 3075,
      "lenen": 3076,
      "ginin": 3077,
      "Ġartik": 3078,
      "mesiyle": 3079,
      "Ġolay": 3080,
      "Ġolacak": 3081,
      "Ġgergin": 3082,
      "Ġgormek": 3083,
      "gulama": 3084,
      "Ġliradir": 3085,
      "Ġbiliyor": 3086,
      "Ġbisiklet": 3087,
      "Ġsaygi": 3088,
      "Ġseyin": 3089,
      "Ġbocek": 3090,
      "Ġkonusunda": 3091,
      "esinde": 3092,
      "abiliriz": 3093,
      "Ġdonus": 3094,
      "lamaya": 3095,
      "Ġduymak": 3096,
      "Ġduydugu": 3097,
      "Ġolmadigini": 3098,
      "Ġekleriz": 3099,
      "Ġbulma": 3100,
      "uyorsa": 3101,
      "ĠPersembe": 3102,
      "Ġuyu": 3103,
      "Ġgecerli": 3104,
      "Ġkullanir": 3105,
      "iter": 3106,
      "Ġsorulari": 3107,
      "lukla": 3108,
      "Ġharca": 3109,
      "Ġseve": 3110,
      "Ġsevdik": 3111,
      "Ġdusunmek": 3112,
      "Ġkurar": 3113,
      "Ġkimdir": 3114,
      "Ġuzundur": 3115,
      "Ġsirada": 3116,
      "Ġucamaz": 3117,
      "Ġdinliyorum": 3118,
      "lerimi": 3119,
      "Ġhizla": 3120,
      "Ġkisisel": 3121,
      "osentez": 3122,
      "upiter": 3123,
      "ĠAyni": 3124,
      "Ġbagla": 3125,
      "Ġisigini": 3126,
      "ĠHerk": 3127,
      "Ġkutup": 3128,
      "Ġelemanlarini": 3129,
      "Ġbakmak": 3130,
      "Ġparcasidir": 3131,
      "Ġortam": 3132,
      "Ġhafiftir": 3133,
      "Ġyorul": 3134,
      "ĠAklinda": 3135,
      "Ġkorku": 3136,
      "Listedeki": 3137,
      "Ġcikmaz": 3138,
      "Ġhissetmen": 3139,
      "Ġlitrelik": 3140,
      "Ġharfe": 3141,
      "otosentez": 3142,
      "ĠIkisi": 3143,
      "aktÃ¶r": 3144,
      "Ġdola": 3145,
      "Ġdiyebilirsin": 3146,
      "Ġhedefe": 3147,
      "Ġhedefle": 3148,
      "Ġgeceler": 3149,
      "Ġgiri": 3150,
      "Ġsoylemek": 3151,
      "Ġnereden": 3152,
      "Ġsehirler": 3153,
      "Ġyasli": 3154,
      "Ġtarafsiz": 3155,
      "Ġcozmek": 3156,
      "Ġonerir": 3157,
      "Ġaksamlar": 3158,
      "Ġtercih": 3159,
      "Ġderecede": 3160,
      "Ġolusturulur": 3161,
      "ĠanlatÄ±r": 3162,
      "Ġilerler": 3163,
      "Ġpaylas": 3164,
      "Ġdavranis": 3165,
      "Ġdogruysa": 3166,
      "Ġgunesli": 3167,
      "Ġ<=": 3168,
      "Ġbirikim": 3169,
      "Ġkosul": 3170,
      "Ġtarih": 3171,
      "Ġtarihi": 3172,
      "meyveler": 3173,
      "Ġhalde": 3174,
      "Ġvucudun": 3175,
      "ĠBoylece": 3176,
      "Ġelektrik": 3177,
      "Ġgorevi": 3178,
      "ĠKural": 3179,
      "Ġyorgunum": 3180,
      "Ġkokulu": 3181,
      "Ġbilmiyorum": 3182,
      "Ġkaynar": 3183,
      "ĠOkyanus": 3184,
      "Ġatas": 3185,
      "ĠCumhuriyeti": 3186,
      "Ġhaline": 3187,
      "Ġartirir": 3188,
      "Ġmeyve": 3189,
      "Ġhasta": 3190,
      "Ġmotivas": 3191,
      "ĠJupiter": 3192,
      "ĠBurak": 3193,
      "Ġdamlacik": 3194,
      "Ġbeyaz": 3195,
      "ĠkiÅŁi": 3196,
      "ĠYuzde": 3197,
      "Ġanlatabilirsin": 3198,
      "Ġvakit": 3199,
      "Ġduyduguma": 3200,
      "Bas": 3201,
      "Dunyanin": 3202,
      "Ken": 3203,
      "Tek": 3204,
      "Tarih": 3205,
      "Yar": 3206,
      "])": 3207,
      "])\"}]}": 3208,
      "nx": 3209,
      "Ġkullanici": 3210,
      "tari": 3211,
      "urt": 3212,
      "limden": 3213,
      "Ġbirden": 3214,
      "Ġala": 3215,
      "Kullanicidan": 3216,
      "ĠBeni": 3217,
      "Ġ56": 3218,
      "ĠTarih": 3219,
      "Ġonda": 3220,
      "ĠOgle": 3221,
      "Ã§ok": 3222,
      "Ġindek": 3223,
      "ĠEtik": 3224,
      "ĠCag": 3225,
      "ĠDunyanin": 3226,
      "ĠDurust": 3227,
      "ÄŁÄ±nÄ±": 3228,
      "Ġoldun": 3229,
      "ĠBence": 3230,
      "ĠGunduz": 3231,
      "ĠFalse": 3232,
      "Ġlisteye": 3233,
      "Ġciftleri": 3234,
      "Ġsatiri": 3235,
      "Ġmesaj": 3236,
      "Ġyasindasin": 3237,
      "ĠAslinda": 3238,
      "ĠBalina": 3239,
      "Ġbiriktir": 3240,
      "Ġbolersin": 3241,
      "Ġkelimelere": 3242,
      "ĠbÃ¼yÃ¼k": 3243,
      "Dongu": 3244,
      "nimport": 3245,
      "ĠsÃ¶y": 3246,
      "',": 3247,
      "24": 3248,
      "Bazi": 3249,
      "Daha": 3250,
      "Istanbul": 3251,
      "Ka": 3252,
      "Kap": 3253,
      "LL": 3254,
      "Ma": 3255,
      "Neden": 3256,
      "Uz": 3257,
      "Veli": 3258,
      "Ya": 3259,
      "Yaz": 3260,
      "ab": 3261,
      "banin": 3262,
      "cedir": 3263,
      "dug": 3264,
      "fi": 3265,
      "gar": 3266,
      "han": 3267,
      "igi": 3268,
      "ial": 3269,
      "lugun": 3270,
      "marim": 3271,
      "rek": 3272,
      "rat": 3273,
      "so": 3274,
      "tta": 3275,
      "tun": 3276,
      "tler": 3277,
      "uh": 3278,
      "ylul": 3279,
      "Ãĩ": 3280,
      "Ġelim": 3281,
      "Ġug": 3282,
      "Ġsini": 3283,
      "sil": 3284,
      "lasa": 3285,
      "lace": 3286,
      "latir": 3287,
      "layip": 3288,
      "Ġbey": 3289,
      "Ġbayram": 3290,
      "Ġbize": 3291,
      "Ġbutun": 3292,
      "ror": 3293,
      "contin": 3294,
      "usta": 3295,
      "usmak": 3296,
      "sas": 3297,
      "lisi": 3298,
      "Ġder": 3299,
      "Ġdunyanin": 3300,
      "une": 3301,
      "unani": 3302,
      "illi": 3303,
      "ildigi": 3304,
      "ura": 3305,
      "urekli": 3306,
      "Ġileri": 3307,
      "Ġmini": 3308,
      "imiz": 3309,
      "ucut": 3310,
      "ukemm": 3311,
      "Ġvita": 3312,
      "Ġvucut": 3313,
      "Ġsolun": 3314,
      "Ġora": 3315,
      "Ġogul": 3316,
      "uygu": 3317,
      "laniyorum": 3318,
      "Ġbirer": 3319,
      "Ġbirine": 3320,
      "Ġbiriyle": 3321,
      "Ġakar": 3322,
      "ĠaÃ§": 3323,
      "Ġaliyor": 3324,
      "Ġait": 3325,
      "Ġdagit": 3326,
      "ork": 3327,
      "Ġgon": 3328,
      "Ġgucu": 3329,
      "Ġyasan": 3330,
      "Ġmik": 3331,
      "Ġmis": 3332,
      "Ġmiyiz": 3333,
      "lerek": 3334,
      "ette": 3335,
      "Ġtuk": 3336,
      "Ġtit": 3337,
      "Ġtep": 3338,
      "Ġtren": 3339,
      "Ġtebrik": 3340,
      "Ġtelefon": 3341,
      "Ġsaati": 3342,
      "Ġsabit": 3343,
      "Ġsantim": 3344,
      "desim": 3345,
      "ĠBulut": 3346,
      "Ġoluyor": 3347,
      "Ġolcu": 3348,
      "uzu": 3349,
      "uzun": 3350,
      "iya": 3351,
      "iyse": 3352,
      "Ġdemir": 3353,
      "cel": 3354,
      "cagim": 3355,
      "Ġtasin": 3356,
      "Ġtasar": 3357,
      "emnuniyetle": 3358,
      "biliriz": 3359,
      "Ġileti": 3360,
      "tigini": 3361,
      "Ġ70": 3362,
      "Ġedilir": 3363,
      "aygi": 3364,
      "aydin": 3365,
      "akla": 3366,
      "Ġpratik": 3367,
      "Ġcog": 3368,
      "Ġcogun": 3369,
      "sebilir": 3370,
      "amani": 3371,
      "ĠKiz": 3372,
      "ĠKema": 3373,
      "ĠKalan": 3374,
      "Ġicer": 3375,
      "Ġgundu": 3376,
      "Ġana": 3377,
      "Ġanlar": 3378,
      "Ġanliyorum": 3379,
      "Ġyerler": 3380,
      "kal": 3381,
      "kale": 3382,
      "oloj": 3383,
      "iskin": 3384,
      "Ġkova": 3385,
      "Ġkosar": 3386,
      "Ġendise": 3387,
      "Ġsayiya": 3388,
      "ĠbaÅŁ": 3389,
      "Ġbacak": 3390,
      "Ġbasar": 3391,
      "Ġbalina": 3392,
      "ĠHazir": 3393,
      "ĠYalniz": 3394,
      "ĠCam": 3395,
      "alya": 3396,
      "Ġrak": 3397,
      "ĠDemek": 3398,
      "ĠDaha": 3399,
      "Ġbilge": 3400,
      "ginc": 3401,
      "Ġiste": 3402,
      "Ġtanesi": 3403,
      "Ġart": 3404,
      "Ġartar": 3405,
      "Ġarada": 3406,
      "Ġsilgi": 3407,
      "Ġolasi": 3408,
      "Ġliranin": 3409,
      "Ġetti": 3410,
      "Ġkara": 3411,
      "Ġsonbaharda": 3412,
      "reak": 3413,
      "Ġsorabilir": 3414,
      "lini": 3415,
      "Ġbilgiyi": 3416,
      "Ġbilim": 3417,
      "Ġbilem": 3418,
      "Ġbicim": 3419,
      "Ġyardima": 3420,
      "Ġfonksiyonunu": 3421,
      "ĠOnemli": 3422,
      "Ġsaate": 3423,
      "yangoz": 3424,
      "esine": 3425,
      "lamayi": 3426,
      "Ġkelimenin": 3427,
      "Ġekley": 3428,
      "Ġolmadigim": 3429,
      "Ġ\\\"))\\": 3430,
      "Ġsudan": 3431,
      "Ġinsanin": 3432,
      "Ġbilgisayarin": 3433,
      "ilimleme": 3434,
      "actor": 3435,
      "ĠPenguen": 3436,
      "erika": 3437,
      "Ġparametre": 3438,
      "Ġisler": 3439,
      "ĠNi": 3440,
      "Ġseverim": 3441,
      "Ġyaparsin": 3442,
      "Ġoldugumu": 3443,
      "Ġdusunerek": 3444,
      "Ġsureyi": 3445,
      "Ġkurmak": 3446,
      "missin": 3447,
      "Ġucgen": 3448,
      "Ġucgenin": 3449,
      "Ġdili": 3450,
      "Ġduygudur": 3451,
      "Ġcalisa": 3452,
      "Ġgercekles": 3453,
      "Ġaraba": 3454,
      "Ġsekiz": 3455,
      "Ġbaglan": 3456,
      "abilece": 3457,
      "Ġkutlanir": 3458,
      "Ġsoylem": 3459,
      "Ġmutevazi": 3460,
      "ĠUc": 3461,
      "ĠUmarim": 3462,
      "Ġlistede": 3463,
      "Ġparcalari": 3464,
      "Ġyurut": 3465,
      "Ġgunlerde": 3466,
      "Ġhafifle": 3467,
      "Ġyorucu": 3468,
      "Ġ250": 3469,
      "Ġatmak": 3470,
      "Ġtembel": 3471,
      "Ġtemelidir": 3472,
      "Ġduzen": 3473,
      "Ġkaygi": 3474,
      "Ġkayna": 3475,
      "Ġkaybet": 3476,
      "Ġsicaktir": 3477,
      "Ġyanitlayabilir": 3478,
      "Ġkapat": 3479,
      "Ġcikmak": 3480,
      "Ġceker": 3481,
      "Ġcekimi": 3482,
      "Ġmodel": 3483,
      "Ġdavrani": 3484,
      "Ġyavasca": 3485,
      "Ã¶rt": 3486,
      "Ġunludur": 3487,
      "ĠInsanlar": 3488,
      "Ġsporcu": 3489,
      "Ġguvenilir": 3490,
      "Ġtersi": 3491,
      "Ġsoguktur": 3492,
      "ĠEkran": 3493,
      "Ġbirbirini": 3494,
      "Ġsistemindeki": 3495,
      "Ġcumleyle": 3496,
      "Ġsessiz": 3497,
      "ilinin": 3498,
      "Ġbeslen": 3499,
      "Ġbeslenir": 3500,
      "Ġsecenek": 3501,
      "Hafta": 3502,
      "Ġanlamaya": 3503,
      "Ġmemeli": 3504,
      "Ġfiilinin": 3505,
      "Ġoksijeni": 3506,
      "Ġdamlaya": 3507,
      "Ġheyecanliyim": 3508,
      "Ġyaratir": 3509,
      "usuruz": 3510,
      "Ġkilog": 3511,
      "Ġkoku": 3512,
      "Ġsevindim": 3513,
      "Ġtutarli": 3514,
      "Ġkelimelerdir": 3515,
      "ĠiÅŁe": 3516,
      "Ġyapabil": 3517,
      "Ġfiyati": 3518,
      "Ġbozuk": 3519,
      "Ġoldugunda": 3520,
      "Ġduyguyu": 3521,
      "ĠHaftada": 3522,
      "Ġsinavi": 3523,
      "Ġpaylastigin": 3524,
      "Ġbosluklari": 3525,
      "Ġmoralim": 3526,
      "Ġkibarca": 3527,
      "Error": 3528,
      "Ġfirsa": 3529,
      "Ġsaniyede": 3530,
      "Ġkeyfini": 3531,
      "Ġdoldur": 3532,
      "Ġonceki": 3533,
      "Ġetiketli": 3534,
      "Ġkarbondiok": 3535,
      "Ġyuvarlak": 3536,
      "Ġdanis": 3537,
      "Ġasagi": 3538,
      "ĠAmerika": 3539,
      "ĠTavsan": 3540,
      "Ġbulmaca": 3541,
      "Ġdiyebilirsiniz": 3542,
      "Ġgirinti": 3543,
      "LLM": 3544,
      "Ġelimden": 3545,
      "Ġbayramdir": 3546,
      "continue": 3547,
      "ustafa": 3548,
      "unanistan": 3549,
      "Ġminik": 3550,
      "ukemmel": 3551,
      "Ġiletisim": 3552,
      "Ġcogunlukla": 3553,
      "ĠKemal": 3554,
      "ĠbaÅŁka": 3555,
      "actorial": 3556,
      "\"]": 3557,
      "Ama": 3558,
      "Ayse": 3559,
      "Cik": 3560,
      "Degis": 3561,
      "Ek": 3562,
      "Ger": 3563,
      "Ko": 3564,
      "Tum": 3565,
      "Yap": 3566,
      "evap": 3567,
      "isim": 3568,
      "ko": 3569,
      "kucuk": 3570,
      "sey": 3571,
      "ĠL": 3572,
      "irli": 3573,
      "saya": 3574,
      "Ġ[\"": 3575,
      "cift": 3576,
      "math": 3577,
      "ĠSor": 3578,
      "ĠSicak": 3579,
      "Ġ500": 3580,
      "Ġzinc": 3581,
      "Ġ75": 3582,
      "Ġfaktoriyel": 3583,
      "Ã¼ÄŁ": 3584,
      "likta": 3585,
      "ĠKi": 3586,
      "ĠKim": 3587,
      "ĠKesin": 3588,
      "ĠKedi": 3589,
      "Ġsep": 3590,
      "ĠOgren": 3591,
      "ĠYuksek": 3592,
      "ĠElimden": 3593,
      "ĠEylul": 3594,
      "ĠCuma": 3595,
      "resini": 3596,
      "ĠsayÄ±": 3597,
      "erilen": 3598,
      "Ġbolunur": 3599,
      "ĠyerelLLM": 3600,
      "Ġkolaydir": 3601,
      "ĠIyilik": 3602,
      "ĠalanÄ±": 3603,
      "ĠalanÄ±nÄ±": 3604,
      "ĠAslan": 3605,
      "Ġtersten": 3606,
      "Ġbirlestirebilirsin": 3607,
      "Ġkahvalti": 3608,
      "Ġornegi": 3609,
      "Ġortalamasini": 3610,
      "Ġsayac": 3611,
      "Ġsoyleyen": 3612,
      "ĠYapay": 3613,
      "ĠCalis": 3614,
      "Ġstringi": 3615,
      "ĠsÃ¶yler": 3616,
      "Gercek": 3617,
      "\"))": 3618,
      "':": 3619,
      "()`": 3620,
      "->": 3621,
      "Ara": 3622,
      "Bo": 3623,
      "Bos": 3624,
      "Bulut": 3625,
      "Cunku": 3626,
      "Cogu": 3627,
      "In": 3628,
      "Internete": 3629,
      "Nasil": 3630,
      "On": 3631,
      "Or": 3632,
      "Rica": 3633,
      "Sif": 3634,
      "True": 3635,
      "Yagmur": 3636,
      "`'": 3637,
      "acak": 3638,
      "ben": 3639,
      "bin": 3640,
      "bas": 3641,
      "bur": 3642,
      "cuk": 3643,
      "cumle": 3644,
      "des": 3645,
      "dÄ±n": 3646,
      "dusu": 3647,
      "dÃ¶rt": 3648,
      "ebi": 3649,
      "fak": 3650,
      "geri": 3651,
      "kim": 3652,
      "kani": 3653,
      "luyum": 3654,
      "mu": 3655,
      "med": 3656,
      "mani": 3657,
      "muyor": 3658,
      "mos": 3659,
      "per": 3660,
      "sonuc": 3661,
      "tinda": 3662,
      "ula": 3663,
      "uan": 3664,
      "vde": 3665,
      "vani": 3666,
      "vator": 3667,
      "yur": 3668,
      "yana": 3669,
      "zer": 3670,
      "ĠW": 3671,
      "Ġul": 3672,
      "ĠÄ°": 3673,
      "Ġ\"))": 3674,
      "ntik": 3675,
      "lelim": 3676,
      "lata": 3677,
      "Ġburn": 3678,
      "esli": 3679,
      "liga": 3680,
      "Ġkas": 3681,
      "Ġkri": 3682,
      "Ġkulak": 3683,
      "tara": 3684,
      "aret": 3685,
      "Ġyiye": 3686,
      "anir": 3687,
      "Ġiz": 3688,
      "imdi": 3689,
      "ciyor": 3690,
      "madim": 3691,
      "Ġsok": 3692,
      "Ġog": 3693,
      "Ġot": 3694,
      "hacim": 3695,
      "larca": 3696,
      "ĠSak": 3697,
      "ĠSurekli": 3698,
      "Ġbirini": 3699,
      "Ġdal": 3700,
      "Ġdayana": 3701,
      "Ġgrup": 3702,
      "yis": 3703,
      "Ġyatak": 3704,
      "lerdir": 3705,
      "etredir": 3706,
      "Ġney": 3707,
      "Ġbuyur": 3708,
      "Ġbuyum": 3709,
      "gidir": 3710,
      "Ġ29": 3711,
      "Ġtuy": 3712,
      "Ġsal": 3713,
      "Ġsar": 3714,
      "Ġhort": 3715,
      "iza": 3716,
      "dem": 3717,
      "str": 3718,
      "stik": 3719,
      "Ġolmam": 3720,
      "umuz": 3721,
      "div": 3722,
      "cagimi": 3723,
      "Ġtabi": 3724,
      "Ġtadini": 3725,
      "Ġ51": 3726,
      "ems": 3727,
      "rika": 3728,
      "kisehir": 3729,
      "Ġzamani": 3730,
      "ĠAcele": 3731,
      "Ġgelece": 3732,
      "Ġyapabilir": 3733,
      "Ġtoplaya": 3734,
      "Ġediyorsun": 3735,
      "aktif": 3736,
      "Ġhac": 3737,
      "Ġhale": 3738,
      "Ġhalidir": 3739,
      "Ġpisir": 3740,
      "Ġpozitif": 3741,
      "Ġcisim": 3742,
      "ĠTem": 3743,
      "ĠTam": 3744,
      "amuk": 3745,
      "ĠKon": 3746,
      "ĠKirmizi": 3747,
      "Ġicmeyi": 3748,
      "Ġederek": 3749,
      "azici": 3750,
      "Ġverip": 3751,
      "Ġyerdir": 3752,
      "Ġyarim": 3753,
      "Ġicindeki": 3754,
      "karan": 3755,
      "Ġkoca": 3756,
      "Ġkodu": 3757,
      "Ġegi": 3758,
      "Ġelinden": 3759,
      "Ġenumerate": 3760,
      "Ġcum": 3761,
      "Ġcuma": 3762,
      "Ġsayisina": 3763,
      "Ġcalistir": 3764,
      "Ġcabuk": 3765,
      "ĠOcak": 3766,
      "Ġbasin": 3767,
      "Ġbagim": 3768,
      "Ġbasinda": 3769,
      "ĠIzmir": 3770,
      "Ġinek": 3771,
      "Ġindirim": 3772,
      "Ġyazilir": 3773,
      "Ġyazabilirim": 3774,
      "siyla": 3775,
      "ĠEmin": 3776,
      "ĠDogu": 3777,
      "Ġbilmedi": 3778,
      "ĠGolu": 3779,
      "ĠGuv": 3780,
      "ĠGoz": 3781,
      "Ġaras": 3782,
      "Ġsise": 3783,
      "Ġsivi": 3784,
      "ĠMumkun": 3785,
      "mesini": 3786,
      "mesine": 3787,
      "Ġsos": 3788,
      "Ġsomut": 3789,
      "tein": 3790,
      "Ġetmeye": 3791,
      "Ġettin": 3792,
      "Ġkarinca": 3793,
      "Ġkardesim": 3794,
      "Ġkardes": 3795,
      "Ġzamandir": 3796,
      "Ġsayilir": 3797,
      "Ġsayesinde": 3798,
      "Ġkitasinda": 3799,
      "yanusu": 3800,
      "Ġbolelim": 3801,
      "Ġkonum": 3802,
      "Ġkendin": 3803,
      "Ġkalmak": 3804,
      "Ġadimlarla": 3805,
      "Ġdonusur": 3806,
      "lamasi": 3807,
      "Ġolabilirsin": 3808,
      "Ġduyu": 3809,
      "Ġolmadan": 3810,
      "Ġdegisebilir": 3811,
      "Ġinsanlari": 3812,
      "Ġinsanlarin": 3813,
      "Ġteker": 3814,
      "Ġdakikalik": 3815,
      "Ġanlamina": 3816,
      "Ġuyum": 3817,
      "Ġuygulama": 3818,
      "Ġuydusu": 3819,
      "Ġgecmi": 3820,
      "Ġisleyip": 3821,
      "Ġkullanirsin": 3822,
      "Ġkullanicinin": 3823,
      "lerinden": 3824,
      "Ã¶tÃ¼": 3825,
      "Ġilginc": 3826,
      "Ġhissede": 3827,
      "Ġhissedi": 3828,
      "Ġceva": 3829,
      "aponya": 3830,
      "Ġdusunulur": 3831,
      "Ġsurdur": 3832,
      "ransa": 3833,
      "Ġyanlistir": 3834,
      "Ġonemlisi": 3835,
      "Ġsaga": 3836,
      "Ġsaglam": 3837,
      "Ġkimse": 3838,
      "Ġ(+": 3839,
      "Ġdurumu": 3840,
      "nternetin": 3841,
      "bette": 3842,
      "Ġdigeri": 3843,
      "Ġzorluk": 3844,
      "Ġdinle": 3845,
      "Ġhizmet": 3846,
      "sizlik": 3847,
      "Ġfarkinda": 3848,
      "Ġgerekli": 3849,
      "Ġgereklidir": 3850,
      "Ġgereksiz": 3851,
      "larimiz": 3852,
      "Ġaza": 3853,
      "upper": 3854,
      "Ġolmaktir": 3855,
      "Ġhavayi": 3856,
      "lasma": 3857,
      "Ġyilda": 3858,
      "Ġyuku": 3859,
      "Ġyukse": 3860,
      "memizi": 3861,
      "Ġmutluyum": 3862,
      "rafi": 3863,
      "ĠUcak": 3864,
      "ĠFark": 3865,
      "Ġkonusma": 3866,
      "Ġkonusalim": 3867,
      "Ġyararsin": 3868,
      "fter": 3869,
      "Ġatmos": 3870,
      "Ġbelirle": 3871,
      "Ġbiridir": 3872,
      "adok": 3873,
      "ozluk": 3874,
      "Ġyolcul": 3875,
      "arika": 3876,
      "Ġguvenli": 3877,
      "Ġgelsin": 3878,
      "Ġureten": 3879,
      "Ġerte": 3880,
      "Ġtanedir": 3881,
      "Ġokul": 3882,
      "Ġhisseder": 3883,
      "Ġhissetmek": 3884,
      "Ġcekin": 3885,
      "Ġ>=": 3886,
      "ĠÅŁey": 3887,
      "Ġhedefler": 3888,
      "Ġhaklari": 3889,
      "Ġgezegenler": 3890,
      "Ġfazladir": 3891,
      "Ġgozden": 3892,
      "lekul": 3893,
      "Ġmetinle": 3894,
      "Ġturuncu": 3895,
      "Ġsehirdir": 3896,
      "ĠRica": 3897,
      "Ġsporu": 3898,
      "Ġspordur": 3899,
      "Ġolmayabilir": 3900,
      "Ġogrenciler": 3901,
      "Ġoneririm": 3902,
      "Ġyasamak": 3903,
      "ĠBasari": 3904,
      "Ġboyunca": 3905,
      "Ġdenize": 3906,
      "Ġtanimlanir": 3907,
      "Ġcanlandir": 3908,
      "Ġilerle": 3909,
      "Ġnaziksin": 3910,
      "Ġgeleni": 3911,
      "ĠSonraki": 3912,
      "Ġgitti": 3913,
      "ĠanlamlÄ±dÄ±r": 3914,
      "Ġgerekirdi": 3915,
      "Ġaciklama": 3916,
      "Ġdogrucu": 3917,
      "Ġboylece": 3918,
      "Ġsinirli": 3919,
      "Ġokuma": 3920,
      "evsimler": 3921,
      "lektrik": 3922,
      "Ġyapmaliyim": 3923,
      "htiyar": 3924,
      "Ġbilincim": 3925,
      "Ġmemnuniyetle": 3926,
      "Ġhatirla": 3927,
      "Ġfidan": 3928,
      "Ġgideriz": 3929,
      "Ġelektron": 3930,
      "Ġkalkmak": 3931,
      "Ġbolunuyorsa": 3932,
      "Ġuzaklas": 3933,
      "ĠIndirim": 3934,
      "Ġgorunuyor": 3935,
      "Ġdurumda": 3936,
      "Ġkediler": 3937,
      "talya": 3938,
      "Ġyagarsa": 3939,
      "Aksam": 3940,
      "Ġyapilan": 3941,
      "Ġkarisik": 3942,
      "Ġayrilir": 3943,
      "Ġyogundur": 3944,
      "ĠSevdigin": 3945,
      "Ġnoktasi": 3946,
      "Ġbulurum": 3947,
      "Altin": 3948,
      "Ġkiymet": 3949,
      "Ġotobus": 3950,
      "Ġtasir": 3951,
      "Ġherkese": 3952,
      "ĠMerkur": 3953,
      "Ġoyn": 3954,
      "ortakal": 3955,
      "Ġdegiskenin": 3956,
      "cillik": 3957,
      "diysem": 3958,
      "fetmek": 3959,
      "Ġvirgulle": 3960,
      "ĠBogazi": 3961,
      "ĠKaplumbaga": 3962,
      "Ġaydinlik": 3963,
      "ĠYardimci": 3964,
      "notlar": 3965,
      "Ġkanit": 3966,
      "Ġatistir": 3967,
      "Ġcagir": 3968,
      "replace": 3969,
      "ĠortalamasÄ±nÄ±": 3970,
      "alindro": 3971,
      "Ġkalici": 3972,
      "Ġtoka": 3973,
      "okkusagi": 3974,
      "Ġdolayi": 3975,
      "Yarin": 3976,
      "Ġugr": 3977,
      "urafa": 3978,
      "Ġvitamini": 3979,
      "ĠaÃ§Ä±k": 3980,
      "Ġgonder": 3981,
      "Ġmisket": 3982,
      "Ġcografi": 3983,
      "Ġrakam": 3984,
      "Ġbilemiyorum": 3985,
      "ĠNisan": 3986,
      "Ġyurutme": 3987,
      "Ġdanismak": 3988,
      "Cikti": 3989,
      "Ġtabii": 3990,
      "Ġbagimsiz": 3991,
      "Ġatmosf": 3992,
      "Ġyolculuk": 3993,
      "alindrom": 3994,
      "())\"}]}": 3995,
      "Arti": 3996,
      "Bit": 3997,
      "Da": 3998,
      "Durust": 3999,
      "El": 4000,
      "Etik": 4001,
      "Ilk": 4002,
      "Kut": 4003,
      "Kac": 4004,
      "Karadeniz": 4005,
      "Mar": 4006,
      "Ok": 4007,
      "Tam": 4008,
      "ebiliyor": 4009,
      "fark": 4010,
      "nen": 4011,
      "rem": 4012,
      "}\\": 4013,
      "Åŀ": 4014,
      "Ġbay": 4015,
      "count": 4016,
      "Ġkop": 4017,
      "arametre": 4018,
      "Ġyedim": 4019,
      "ilmis": 4020,
      "ĠSin": 4021,
      "ĠkaÃ§": 4022,
      "Ġgali": 4023,
      "ĠBel": 4024,
      "ĠTren": 4025,
      "ĠKal": 4026,
      "Ġyerinde": 4027,
      "leman": 4028,
      "Birkac": 4029,
      "ĠOto": 4030,
      "ĠHos": 4031,
      "ĠDun": 4032,
      "ĠDon": 4033,
      "ĠDik": 4034,
      "ĠDagi": 4035,
      "ĠDuygu": 4036,
      "ĠGor": 4037,
      "ĠGece": 4038,
      "ĠMola": 4039,
      "ĠMustafa": 4040,
      "Ġkendimi": 4041,
      "Ġkelimeyle": 4042,
      "ĠtoplamÄ±nÄ±": 4043,
      "ebilirim": 4044,
      "Ġcarpar": 4045,
      "Ġyazdiran": 4046,
      "elerini": 4047,
      "Ġkontroluyle": 4048,
      "ĠIyiyim": 4049,
      "ĠHayal": 4050,
      "Ġmetinde": 4051,
      "ĠRo": 4052,
      "ĠMars": 4053,
      "ĠKartal": 4054,
      "Ġtanimlarsin": 4055,
      "Ġdigerine": 4056,
      "Hayal": 4057,
      "Ġikiye": 4058,
      "ĠAralarinda": 4059,
      "ĠListedeki": 4060,
      "Ġsayabilirsin": 4061,
      "Ġdegistirir": 4062,
      "Ġistedigin": 4063,
      "Ġkoyarsin": 4064,
      "ĠÃ§evresi": 4065,
      "ĠÃ§evresini": 4066,
      "ortalama": 4067,
      "Ġdegiskeni": 4068,
      "selamla": 4069,
      "ĠYildizlar": 4070,
      "Ġberaber": 4071,
      "Ġondalik": 4072,
      "sayac": 4073,
      "Ġgaliba": 4074,
      "25": 4075,
      "85": 4076,
      ":`": 4077,
      "At": 4078,
      "Buz": 4079,
      "Buyuk": 4080,
      "Boyle": 4081,
      "Dogru": 4082,
      "Dilimleme": 4083,
      "Kod": 4084,
      "Toplam": 4085,
      "adir": 4086,
      "avi": 4087,
      "bek": 4088,
      "bda": 4089,
      "bak": 4090,
      "bere": 4091,
      "bÄ±r": 4092,
      "bazi": 4093,
      "bot": 4094,
      "butun": 4095,
      "blasi": 4096,
      "cut": 4097,
      "carp": 4098,
      "das": 4099,
      "dogu": 4100,
      "drat": 4101,
      "ecek": 4102,
      "egen": 4103,
      "ehir": 4104,
      "fe": 4105,
      "fke": 4106,
      "gan": 4107,
      "gor": 4108,
      "gine": 4109,
      "ice": 4110,
      "iliyor": 4111,
      "kez": 4112,
      "lur": 4113,
      "ller": 4114,
      "mas": 4115,
      "mert": 4116,
      "medik": 4117,
      "mometre": 4118,
      "niye": 4119,
      "nyas": 4120,
      "oÄŁ": 4121,
      "obil": 4122,
      "pe": 4123,
      "plar": 4124,
      "pey": 4125,
      "ser": 4126,
      "suz": 4127,
      "senin": 4128,
      "sert": 4129,
      "swith": 4130,
      "ter": 4131,
      "tÄ±r": 4132,
      "vert": 4133,
      "wer": 4134,
      "xce": 4135,
      "yonu": 4136,
      "yrek": 4137,
      "zon": 4138,
      "Ġlim": 4139,
      "ĠDusun": 4140,
      "ĠÃ¶": 4141,
      "Ġ...": 4142,
      "ntoplam": 4143,
      "leti": 4144,
      "lese": 4145,
      "lesince": 4146,
      "simak": 4147,
      "eren": 4148,
      "erede": 4149,
      "erinde": 4150,
      "lasinca": 4151,
      "Ġbizi": 4152,
      "Ġbina": 4153,
      "esaret": 4154,
      "rogram": 4155,
      "usya": 4156,
      "lisin": 4157,
      "lica": 4158,
      "enc": 4159,
      "enis": 4160,
      "engin": 4161,
      "enmis": 4162,
      "inetik": 4163,
      "Ġdis": 4164,
      "Ġdust": 4165,
      "undan": 4166,
      "unuslar": 4167,
      "are": 4168,
      "aris": 4169,
      "ilmistir": 4170,
      "asyon": 4171,
      "urum": 4172,
      "anc": 4173,
      "anya": 4174,
      "start": 4175,
      "mesaj": 4176,
      "Ġilik": 4177,
      "Ġipi": 4178,
      "Ġme": 4179,
      "imri": 4180,
      "imini": 4181,
      "ekusu": 4182,
      "ucre": 4183,
      "ucusu": 4184,
      "mat": 4185,
      "Ġsus": 4186,
      "Ġsem": 4187,
      "Ġsert": 4188,
      "Ġsuyla": 4189,
      "Ġstres": 4190,
      "Ġoyle": 4191,
      "Ġopen": 4192,
      "uyamiyorum": 4193,
      "lanmak": 4194,
      "laniyor": 4195,
      "larmi": 4196,
      "ĠSif": 4197,
      "ĠSimdi": 4198,
      "ĠbirÃ§ok": 4199,
      "uluyor": 4200,
      "Ġatik": 4201,
      "Ġatan": 4202,
      "Ġdag": 4203,
      "Ġkaliyor": 4204,
      "ĠgÃ¶": 4205,
      "Ġgolu": 4206,
      "edavi": 4207,
      "Ġyaka": 4208,
      "ete": 4209,
      "Ġneye": 4210,
      "Ä±karan": 4211,
      "Ġtela": 4212,
      "Ġtedavi": 4213,
      "Ġsabir": 4214,
      "Ġsaman": 4215,
      "dag": 4216,
      "dam": 4217,
      "dasim": 4218,
      "turn": 4219,
      "ĠBi": 4220,
      "ĠBuy": 4221,
      "Ġolman": 4222,
      "Ġoluyorum": 4223,
      "Ġolmus": 4224,
      "uzgar": 4225,
      "Ġdemis": 4226,
      "Ġdefter": 4227,
      "dirir": 4228,
      "Ġ37": 4229,
      "cagini": 4230,
      "Ġtasidir": 4231,
      "Ġtasimak": 4232,
      "Ġ54": 4233,
      "Ġ400": 4234,
      "Ġvarir": 4235,
      "Ġvarsayi": 4236,
      "Ġzat": 4237,
      "Ġzurafa": 4238,
      "Ġzehir": 4239,
      "yasal": 4240,
      "ĠAr": 4241,
      "ĠAna": 4242,
      "ĠAcik": 4243,
      "tip": 4244,
      "tidir": 4245,
      "tika": 4246,
      "Ġgelis": 4247,
      "Ġyapmam": 4248,
      "Ġyapip": 4249,
      "Ġyaprak": 4250,
      "Ġyapabilece": 4251,
      "Ġtopu": 4252,
      "Ġtoplamak": 4253,
      "Ġedici": 4254,
      "eyse": 4255,
      "akkale": 4256,
      "Ġhalin": 4257,
      "Ġhatta": 4258,
      "Ġpo": 4259,
      "Ġpir": 4260,
      "Ġpik": 4261,
      "Ġpazar": 4262,
      "Ġpaha": 4263,
      "Ġpenguen": 4264,
      "Ġpuan": 4265,
      "Ġportakal": 4266,
      "Ġkisinin": 4267,
      "Ġfotosentez": 4268,
      "lamiyorum": 4269,
      "lambda": 4270,
      "\\\"))\"}]}": 4271,
      "Ã¼l": 4272,
      "liktir": 4273,
      "Ġnesin": 4274,
      "Ġnehir": 4275,
      "amlaya": 4276,
      "ĠKuzey": 4277,
      "atma": 4278,
      "atici": 4279,
      "Ġekseni": 4280,
      "oga": 4281,
      "Ġkucukten": 4282,
      "Ġgunum": 4283,
      "Ġgunlerin": 4284,
      "Ġgunluk": 4285,
      "Ġanlarda": 4286,
      "Ġverim": 4287,
      "Ġverici": 4288,
      "Ġverilir": 4289,
      "Ġveriyor": 4290,
      "Ġverdigin": 4291,
      "Ġvererek": 4292,
      "Ġyeri": 4293,
      "Ġuzman": 4294,
      "Ġuzmana": 4295,
      "Ġolurdu": 4296,
      "iyorsan": 4297,
      "isman": 4298,
      "Ġkose": 4299,
      "ugla": 4300,
      "denin": 4301,
      "Ġepey": 4302,
      "Ġcm": 4303,
      "Ġcarsamba": 4304,
      "Ġsayida": 4305,
      "ĠOlum": 4306,
      "Ġbah": 4307,
      "Ġbatar": 4308,
      "Ã§a": 4309,
      "ÅŁa": 4310,
      "ĠHar": 4311,
      "ĠHem": 4312,
      "ĠHak": 4313,
      "ĠHep": 4314,
      "ĠHizli": 4315,
      "ĠBirine": 4316,
      "ĠYunanistan": 4317,
      "Ġyazabilirsin": 4318,
      "enip": 4319,
      "ikna": 4320,
      "Ġcikarim": 4321,
      "Ġcikarmak": 4322,
      "Ġcikaralim": 4323,
      "bilen": 4324,
      "bilecek": 4325,
      "ĠCeren": 4326,
      "alÄ±m": 4327,
      "Ġbaslama": 4328,
      "Ġbaslarsin": 4329,
      "Ġreh": 4330,
      "ĠDog": 4331,
      "ĠDisa": 4332,
      "iyesinde": 4333,
      "Ġistedim": 4334,
      "Ġdogran": 4335,
      "Ġarac": 4336,
      "Ġsig": 4337,
      "ĠMad": 4338,
      "ĠMemnuniyetle": 4339,
      "meli": 4340,
      "Ġsoyad": 4341,
      "Ġlirasi": 4342,
      "Ġayar": 4343,
      "Ġamac": 4344,
      "Ġamacin": 4345,
      "Ġgorusuruz": 4346,
      "Ġkartinda": 4347,
      "Ġsorunu": 4348,
      "Ġbitin": 4349,
      "cekler": 4350,
      "Ġsaattir": 4351,
      "Ġsaatten": 4352,
      "Ġzeki": 4353,
      "Ġkustur": 4354,
      "Ġbosal": 4355,
      "Ġkenari": 4356,
      "Ġkalmayi": 4357,
      "Ġkalkip": 4358,
      "Ġadimla": 4359,
      "Ġadimini": 4360,
      "Ġadimlara": 4361,
      "Ġ135": 4362,
      "Ġcalismaya": 4363,
      "Ġuzerinden": 4364,
      "Ġdegilse": 4365,
      "Ġeklersin": 4366,
      "Ġbilgisayara": 4367,
      "evcut": 4368,
      "Ġbuluyor": 4369,
      "Ġdenebilir": 4370,
      "acci": 4371,
      "ĠÃ§Ä±karan": 4372,
      "Ġanlamda": 4373,
      "Ġogrenip": 4374,
      "uyorsun": 4375,
      "Ġuyar": 4376,
      "Ġuydur": 4377,
      "Ġalgi": 4378,
      "Ġyuzyil": 4379,
      "Ġgectim": 4380,
      "Ġisleri": 4381,
      "kenar": 4382,
      "kendini": 4383,
      "itma": 4384,
      "ĠGunun": 4385,
      "Ġilgi": 4386,
      "siklik": 4387,
      "ĠNep": 4388,
      "Ġceyrek": 4389,
      "Ġanlayi": 4390,
      "Ġanlamak": 4391,
      "Ġanlamamizi": 4392,
      "ĠSaturn": 4393,
      "Ġseversin": 4394,
      "Ġseviyesinde": 4395,
      "Ġyaparak": 4396,
      "Ġyaparken": 4397,
      "Ġbolmek": 4398,
      "Ġdusunuyorum": 4399,
      "Ġdusunebiliriz": 4400,
      "Ġsurdu": 4401,
      "ĠdeÄŁeri": 4402,
      "Ġogrenme": 4403,
      "Ġogrendigim": 4404,
      "ranus": 4405,
      "Ġyanlisi": 4406,
      "arktika": 4407,
      "ustos": 4408,
      "Ġkura": 4409,
      "Ġkurak": 4410,
      "Ġkurali": 4411,
      "Ġkurucusu": 4412,
      "Ġkime": 4413,
      "Ġkimyasal": 4414,
      "Ġsirayla": 4415,
      "Ġakimi": 4416,
      "Ġagri": 4417,
      "Ġhangileri": 4418,
      "Ġdile": 4419,
      "Ġ1000": 4420,
      "Ġverirken": 4421,
      "adaki": 4422,
      "Ġzordur": 4423,
      "manya": 4424,
      "Ġduygulari": 4425,
      "Ġkisilik": 4426,
      "Ġilkem": 4427,
      "osu": 4428,
      "Ġyazdirabilirsin": 4429,
      "Ġgereken": 4430,
      "Ġaralik": 4431,
      "miÅŁ": 4432,
      "Ġsekli": 4433,
      "Ġsekeri": 4434,
      "Ġhavadaki": 4435,
      "Ġkutusu": 4436,
      "Ġoncelik": 4437,
      "lasmaktir": 4438,
      "Ġcevri": 4439,
      "Ġsoylemem": 4440,
      "Ä°nternete": 4441,
      "Ġyuksel": 4442,
      "Ġagirdir": 4443,
      "meme": 4444,
      "Ġbencillik": 4445,
      "Ġkolayca": 4446,
      "Ġkolaylastir": 4447,
      "Ġkolaylasir": 4448,
      "Ġbasladim": 4449,
      "Ġbaslayip": 4450,
      "ĠUranus": 4451,
      "ĠVucu": 4452,
      "Ġkonusabiliriz": 4453,
      "Ġparcalara": 4454,
      "Ġyuru": 4455,
      "Ġyurur": 4456,
      "Ġgunlere": 4457,
      "Ġgosteririm": 4458,
      "Ġhafifce": 4459,
      "Ġkarsiti": 4460,
      "Ġkarsisinda": 4461,
      "Ġbelirler": 4462,
      "Ġbelirgin": 4463,
      "Ġkoru": 4464,
      "Ġduzine": 4465,
      "elebek": 4466,
      "Ġyeti": 4467,
      "Ġhayvani": 4468,
      "ozu": 4469,
      "Ġyolda": 4470,
      "Ġyoldur": 4471,
      "Ġkaplumbaga": 4472,
      "Ġkapiyi": 4473,
      "Ġbaskalarinin": 4474,
      "Ġguveni": 4475,
      "ĠhazÄ±r": 4476,
      "Ġcikti": 4477,
      "Ġuretiyorum": 4478,
      "Ġuretirim": 4479,
      "Ġertesi": 4480,
      "Ġokyanus": 4481,
      "Ġozen": 4482,
      "Ġenerjim": 4483,
      "Ġenerjik": 4484,
      "Ġhissettir": 4485,
      "Ġharfi": 4486,
      "ĠyakÄ±n": 4487,
      "Ġdoyur": 4488,
      "Ġayirt": 4489,
      "Ġayirmak": 4490,
      "Ġdinlenme": 4491,
      "Ġhesapla": 4492,
      "Ġhesaplama": 4493,
      "tinca": 4494,
      "Ġyavastir": 4495,
      "ĠHaya": 4496,
      "Ġgelisim": 4497,
      "Ġgozlem": 4498,
      "Ġcevirmek": 4499,
      "Ġceviririm": 4500,
      "Ġsirasinda": 4501,
      "Ġgirdi": 4502,
      "Ġetmektir": 4503,
      "Ġrenkler": 4504,
      "Ġmolalar": 4505,
      "Ġyonlendir": 4506,
      "ĠInsani": 4507,
      "medigin": 4508,
      "Ġguvendigin": 4509,
      "ĠMart": 4510,
      "Ġcozum": 4511,
      "incalar": 4512,
      "incaplar": 4513,
      "Ġderecedir": 4514,
      "ĠBabam": 4515,
      "Ġboyu": 4516,
      "Ġboyut": 4517,
      "Ġdenizler": 4518,
      "Ġgecirdim": 4519,
      "Ġanlatmak": 4520,
      "Ġprogramiyim": 4521,
      "Sadece": 4522,
      "hidrat": 4523,
      "malisin": 4524,
      "Ġbirakmak": 4525,
      "giliz": 4526,
      "Ġyaptigini": 4527,
      "Ġedebiliriz": 4528,
      "Ġdavranmayi": 4529,
      "Ġbirlestirirsin": 4530,
      "Ġcumlede": 4531,
      "Ġsesli": 4532,
      "Ġayakli": 4533,
      "Ġsakinlestir": 4534,
      "Ġyildizlar": 4535,
      "Ġyildizdir": 4536,
      "Ġbesler": 4537,
      "Ġdogruyu": 4538,
      "Ġsinirlar": 4539,
      "Ġkahv": 4540,
      "Ġula": 4541,
      "Ġokumak": 4542,
      "Ġgelistirdi": 4543,
      "Ġsozluk": 4544,
      "hurbas": 4545,
      "tom": 4546,
      "Ġtavsiye": 4547,
      "Ġasir": 4548,
      "Ġtarif": 4549,
      "Ġbeklerim": 4550,
      "Ġmerkez": 4551,
      "Ġunutuyorum": 4552,
      "Ġodaklanmayi": 4553,
      "bonacci": 4554,
      "Ġbazilari": 4555,
      "Ġgenc": 4556,
      "Ġcicektir": 4557,
      "ĠMavi": 4558,
      "ĠMayis": 4559,
      "Ġdegiskene": 4560,
      "Ġdegiskenine": 4561,
      "kuslar": 4562,
      "ĠGenellikle": 4563,
      "gurluk": 4564,
      "Ġgetirir": 4565,
      "Ġyaraya": 4566,
      "Ġelektri": 4567,
      "Ġozellikle": 4568,
      "ĠBilgi": 4569,
      "ĠBilgisayar": 4570,
      "Ġbolunmez": 4571,
      "Ġkilometre": 4572,
      "Ġdoktor": 4573,
      "Ġyeme": 4574,
      "Ġyemegi": 4575,
      "Ġcalisiyorsun": 4576,
      "Ġkavramdir": 4577,
      "Ġzihin": 4578,
      "Ġzihni": 4579,
      "Ġbasarilar": 4580,
      "Ġsahiptir": 4581,
      "Ġustunde": 4582,
      "irgulle": 4583,
      "Ġoturur": 4584,
      "Ġyatmadan": 4585,
      "Ġkiyisinda": 4586,
      "Ġsimit": 4587,
      "Ġkaristir": 4588,
      "Ġkarisinca": 4589,
      "Ġduygum": 4590,
      "Ġuykuya": 4591,
      "Ġgucludur": 4592,
      "Ġinanctir": 4593,
      "spanya": 4594,
      "Ġerise": 4595,
      "Ġerisim": 4596,
      "Ġolcer": 4597,
      "ĠAgustos": 4598,
      "Ġlazim": 4599,
      "ecmis": 4600,
      "Ġdusuk": 4601,
      "Ã¼zel": 4602,
      "Ġbaslayacagimi": 4603,
      "Ġmaddeleri": 4604,
      "Ġihtiyacim": 4605,
      "Ġistedigim": 4606,
      "amazan": 4607,
      "Ġkiyas": 4608,
      "Ġikincisi": 4609,
      "Ġgazete": 4610,
      "Ġtakvim": 4611,
      "Ġdonemdir": 4612,
      "Ġmotive": 4613,
      "Ġsurerse": 4614,
      "Ġazaltmak": 4615,
      "lower": 4616,
      "Ġkanat": 4617,
      "Ġicecek": 4618,
      "Ġsunum": 4619,
      "Ġyagisli": 4620,
      "Ġyazilimdir": 4621,
      "ĠEskisehir": 4622,
      "Ġolabildigim": 4623,
      "Ġolabildiysem": 4624,
      "Ġoldukca": 4625,
      "Ġkurallari": 4626,
      "Ġcevresinde": 4627,
      "ilav": 4628,
      "ĠBogazici": 4629,
      "ĠAfrika": 4630,
      "Ġcalistim": 4631,
      "ĠGuneydogu": 4632,
      "Mutlu": 4633,
      "Ġbloga": 4634,
      "Ġyenir": 4635,
      "Ġbirimidir": 4636,
      "Ġanilar": 4637,
      "Ġuzgunum": 4638,
      "Ġcanta": 4639,
      "Ġnerededir": 4640,
      "Ġneredeyse": 4641,
      "Genelde": 4642,
      "sorted": 4643,
      "Ġbuyuge": 4644,
      "Ġduzelt": 4645,
      "ĠSinavi": 4646,
      "Ġdepolama": 4647,
      "ĠAntarktika": 4648,
      "Ġrutin": 4649,
      "Ġdonusum": 4650,
      "Ġharcama": 4651,
      "Ġbaglantim": 4652,
      "ĠHerkes": 4653,
      "Ġkutuplar": 4654,
      "aktÃ¶riye": 4655,
      "Ġkokuludur": 4656,
      "ĠatasÃ¶z": 4657,
      "Ġmotivasyonu": 4658,
      "soyad": 4659,
      "Ġsinifta": 4660,
      "Ġorada": 4661,
      "Ġtukenmis": 4662,
      "Ġtitr": 4663,
      "oloji": 4664,
      "Ġbicimde": 4665,
      "Ġkaybetmek": 4666,
      "Ġdavranistir": 4667,
      "Ġkilogram": 4668,
      "Ġkarbondioksi": 4669,
      "Degisken": 4670,
      "Ġkrista": 4671,
      "Ġyiyecek": 4672,
      "Ġneyden": 4673,
      "Ġsalyangoz": 4674,
      "Ġhortum": 4675,
      "string": 4676,
      "Ġkocaman": 4677,
      "Ġbilmedigimi": 4678,
      "ĠMumkunse": 4679,
      "Ġsosyal": 4680,
      "Ġhissedilen": 4681,
      "Ġcevabi": 4682,
      "Ġ(+)": 4683,
      "Ġazalir": 4684,
      "adokya": 4685,
      "ĠIndirimli": 4686,
      "Ġkiymetlidir": 4687,
      "Toplami": 4688,
      "goritma": 4689,
      "xcept": 4690,
      "Ġlimon": 4691,
      "ĠÃ¶ÄŁ": 4692,
      "rogramlama": 4693,
      "startswith": 4694,
      "Ġvarsayilan": 4695,
      "Ġzaten": 4696,
      "Ġrehber": 4697,
      "ĠDisari": 4698,
      "Ġdogranmis": 4699,
      "Ġbitince": 4700,
      "ĠNeptun": 4701,
      "Ġdoyurucu": 4702,
      "hurbaskani": 4703,
      "()": 4704,
      "Cum": 4705,
      "Cift": 4706,
      "Den": 4707,
      "Heyecan": 4708,
      "Ist": 4709,
      "Isik": 4710,
      "Kal": 4711,
      "Kend": 4712,
      "Sana": 4713,
      "Strin": 4714,
      "Uy": 4715,
      "Var": 4716,
      "Yani": 4717,
      "elik": 4718,
      "faktoriyel": 4719,
      "gac": 4720,
      "iki": 4721,
      "kir": 4722,
      "lug": 4723,
      "nDusunelim": 4724,
      "nkelime": 4725,
      "nmeyveler": 4726,
      "yÄ±": 4727,
      "ĠÃ¼": 4728,
      "Ġwhile": 4729,
      "ĠÃľÃ§": 4730,
      "Ġcontinue": 4731,
      "irenin": 4732,
      "insert": 4733,
      "Ġyana": 4734,
      "Ġoge": 4735,
      "lanlar": 4736,
      "larÄ±n": 4737,
      "ĠSes": 4738,
      "ĠSan": 4739,
      "ĠSaygi": 4740,
      "Ġaf": 4741,
      "Ġdaire": 4742,
      "ullanicinin": 4743,
      "Ġte": 4744,
      "daire": 4745,
      "dirabilirsin": 4746,
      "Ġ62": 4747,
      "ĠAdalet": 4748,
      "Ġ101": 4749,
      "ĠTebrik": 4750,
      "ismin": 4751,
      "Ġsayidan": 4752,
      "sana": 4753,
      "ĠIk": 4754,
      "ĠIsik": 4755,
      "ĠInternete": 4756,
      "ĠItalya": 4757,
      "ÅŁebiliyor": 4758,
      "ĠHedef": 4759,
      "ĠHeyecan": 4760,
      "ĠBirinci": 4761,
      "ĠYet": 4762,
      "ĠCog": 4763,
      "rever": 4764,
      "lince": 4765,
      "Ġsaymak": 4766,
      "Ġ144": 4767,
      "Ġ\\\")\\": 4768,
      "Ġtekleri": 4769,
      "ĠÃ§ok": 4770,
      "ĠGunluk": 4771,
      "100": 4772,
      "Ġadin": 4773,
      "ĠSabir": 4774,
      "Ġsevdigim": 4775,
      "ĠAmacim": 4776,
      "Ġyazdirirsin": 4777,
      "adini": 4778,
      "elif": 4779,
      "Ġayirip": 4780,
      "Ġayirarak": 4781,
      "Ġhesaplaya": 4782,
      "ĠHata": 4783,
      "...\"}]}": 4784,
      "Ġsiralamak": 4785,
      "Iyilik": 4786,
      "Ġmetinleri": 4787,
      "ĠResim": 4788,
      "ĠInsanin": 4789,
      "langicta": 4790,
      "ĠBalik": 4791,
      "ĠEkvator": 4792,
      "Ġbirlestirir": 4793,
      "Ġsabahlar": 4794,
      "Ġesittir": 4795,
      "Ġdonguyu": 4796,
      "Ġselamla": 4797,
      "ĠMantik": 4798,
      "ĠKendini": 4799,
      "ĠListenin": 4800,
      "ĠKurt": 4801,
      "ĠOkul": 4802,
      "ĠOrman": 4803,
      "ĠeriÅŁebiliyor": 4804,
      "ĠUzun": 4805,
      "Ġhayatim": 4806,
      "Ġkarsilastirma": 4807,
      "Sevin": 4808,
      "ĠBunlar": 4809,
      "Aslinda": 4810,
      "ĠYavas": 4811,
      "ĠErken": 4812,
      "ĠÃ§arpan": 4813,
      "Ġ{\\\"": 4814,
      "Ġbuyutur": 4815,
      "ĠBitkiler": 4816,
      "ĠUyku": 4817,
      "Yildizlar": 4818,
      "Ġkullanicidan": 4819,
      "Ġalabilirsin": 4820,
      "Ġmesaji": 4821,
      "ĠSorumluluk": 4822,
      "Ã¼ÄŁÃ¼nÃ¼": 4823,
      "Once": 4824,
      "ĠTemel": 4825,
      "Cumhuriyet": 4826,
      "kiraz": 4827,
      "reverse": 4828,
      ".,": 4829,
      "23": 4830,
      "45": 4831,
      "56": 4832,
      "90": 4833,
      "AB": 4834,
      "Ah": 4835,
      "Ar": 4836,
      "Ant": 4837,
      "Ari": 4838,
      "Adim": 4839,
      "Anadolu": 4840,
      "Bi": 4841,
      "Buna": 4842,
      "Bilin": 4843,
      "Ci": 4844,
      "ChatGPT": 4845,
      "Dog": 4846,
      "Damlaya": 4847,
      "Es": 4848,
      "Fi": 4849,
      "Fil": 4850,
      "Hic": 4851,
      "Hicbir": 4852,
      "Internet": 4853,
      "Izmir": 4854,
      "Kopek": 4855,
      "Kork": 4856,
      "Metin": 4857,
      "Mehmet": 4858,
      "Po": 4859,
      "Parametre": 4860,
      "Sina": 4861,
      "Sag": 4862,
      "Tem": 4863,
      "Virgulle": 4864,
      "Yer": 4865,
      "Yok": 4866,
      "Yilin": 4867,
      "Zaman": 4868,
      "Zengin": 4869,
      "ama": 4870,
      "alese": 4871,
      "bun": 4872,
      "bri": 4873,
      "bat": 4874,
      "bani": 4875,
      "break": 4876,
      "bzon": 4877,
      "ceden": 4878,
      "cusu": 4879,
      "cumu": 4880,
      "do": 4881,
      "ddi": 4882,
      "ef": 4883,
      "emaya": 4884,
      "elistir": 4885,
      "fen": 4886,
      "fik": 4887,
      "factorial": 4888,
      "gon": 4889,
      "gpt": 4890,
      "ho": 4891,
      "hil": 4892,
      "htar": 4893,
      "htim": 4894,
      "int": 4895,
      "iti": 4896,
      "ilebilir": 4897,
      "kler": 4898,
      "meni": 4899,
      "net": 4900,
      "nasÄ±l": 4901,
      "nwhile": 4902,
      "nsoyad": 4903,
      "otam": 4904,
      "ocuk": 4905,
      "pita": 4906,
      "phan": 4907,
      "rim": 4908,
      "reye": 4909,
      "retli": 4910,
      "sman": 4911,
      "sonu": 4912,
      "ton": 4913,
      "tici": 4914,
      "tere": 4915,
      "tre": 4916,
      "tusu": 4917,
      "uf": 4918,
      "ues": 4919,
      "vye": 4920,
      "yol": 4921,
      "yetik": 4922,
      "zem": 4923,
      "Ġro": 4924,
      "ĠÃ¼z": 4925,
      "ira": 4926,
      "irn": 4927,
      "irus": 4928,
      "irler": 4929,
      "irasi": 4930,
      "irken": 4931,
      "sius": 4932,
      "erlin": 4933,
      "erken": 4934,
      "ermometre": 4935,
      "ladigin": 4936,
      "layici": 4937,
      "lavye": 4938,
      "Ġbilir": 4939,
      "Ġbog": 4940,
      "Ġbasi": 4941,
      "Ġbeden": 4942,
      "Ġbreak": 4943,
      "est": 4944,
      "esel": 4945,
      "usak": 4946,
      "usmek": 4947,
      "sap": 4948,
      "sant": 4949,
      "sama": 4950,
      "salar": 4951,
      "safir": 4952,
      "lilar": 4953,
      "ligim": 4954,
      "lize": 4955,
      "Ġklasik": 4956,
      "enus": 4957,
      "ende": 4958,
      "enuz": 4959,
      "enumerate": 4960,
      "tacak": 4961,
      "tabilirim": 4962,
      "inmek": 4963,
      "Ġdun": 4964,
      "Ġduk": 4965,
      "Ġdiz": 4966,
      "Ġdini": 4967,
      "unce": 4968,
      "art": 4969,
      "Ġyir": 4970,
      "Ġyiyorum": 4971,
      "Ġyula": 4972,
      "ilmak": 4973,
      "ildim": 4974,
      "ildik": 4975,
      "ildin": 4976,
      "ildigin": 4977,
      "ilmaz": 4978,
      "assas": 4979,
      "uruk": 4980,
      "onError": 4981,
      "anyetik": 4982,
      "Ġihtim": 4983,
      "Ġmil": 4984,
      "Ġmur": 4985,
      "Ġmal": 4986,
      "Ġmukemmel": 4987,
      "ekiz": 4988,
      "ucuyum": 4989,
      "gel": 4990,
      "cidir": 4991,
      "civert": 4992,
      "Ġvak": 4993,
      "Ġvakt": 4994,
      "mamak": 4995,
      "matik": 4996,
      "masina": 4997,
      "Ġsuc": 4998,
      "Ġsuy": 4999,
      "Ġsunu": 5000,
      "limiz": 5001,
      "Ġode": 5002,
      "Ġomur": 5003,
      "uyan": 5004,
      "uyup": 5005,
      "landim": 5006,
      "lanabilir": 5007,
      "lanmis": 5008,
      "landigi": 5009,
      "ĠSoru": 5010,
      "Ġbirinin": 5011,
      "Ġbirinde": 5012,
      "uluk": 5013,
      "uldugun": 5014,
      "Ġale": 5015,
      "Ġadalet": 5016,
      "Ġagiz": 5017,
      "Ġdama": 5018,
      "Ġdagil": 5019,
      "Ġdahil": 5020,
      "orba": 5021,
      "orku": 5022,
      "orgun": 5023,
      "Ġkalin": 5024,
      "Ġkatar": 5025,
      "Ġkamu": 5026,
      "ĠgÃ¶r": 5027,
      "Ġgizli": 5028,
      "Ġyaya": 5029,
      "Bilgisayar": 5030,
      "lerce": 5031,
      "etmen": 5032,
      "Ġniyet": 5033,
      "Ġnaber": 5034,
      "Ġnice": 5035,
      "Ġtes": 5036,
      "Ġtel": 5037,
      "Ġtoz": 5038,
      "Ġsav": 5039,
      "Ġsali": 5040,
      "day": 5041,
      "Ġhi": 5042,
      "Ġhuk": 5043,
      "Ġhos": 5044,
      "izler": 5045,
      "ĠBal": 5046,
      "ĠBos": 5047,
      "Ġolunca": 5048,
      "uzenli": 5049,
      "iyenin": 5050,
      "umus": 5051,
      "diren": 5052,
      "cegini": 5053,
      "cevap": 5054,
      "Ġ320": 5055,
      "digit": 5056,
      "caÄŁÄ±nÄ±": 5057,
      "ellikle": 5058,
      "elsius": 5059,
      "Ġkacta": 5060,
      "Ġtara": 5061,
      "ĠtaÅŁ": 5062,
      "Ġtasiy": 5063,
      "Ġtasiyor": 5064,
      "Ġ55": 5065,
      "opotam": 5066,
      "rip": 5067,
      "Ġ64": 5068,
      "Ġ65": 5069,
      "Ġvarsin": 5070,
      "ĠvardÄ±": 5071,
      "kikat": 5072,
      "Ġzil": 5073,
      "Ġzip": 5074,
      "Ġzayi": 5075,
      "yabilirsin": 5076,
      "ĠAri": 5077,
      "ĠAblasi": 5078,
      "ĠAlarmi": 5079,
      "Ġgev": 5080,
      "Ġgelecek": 5081,
      "Ġyaptik": 5082,
      "Ġyaptim": 5083,
      "Ġyapiyorsun": 5084,
      "Ġyapmamizi": 5085,
      "Ġyapabiliyor": 5086,
      "Ġ720": 5087,
      "Ġediyorum": 5088,
      "Ġedilen": 5089,
      "Ġedinmek": 5090,
      "aykuslar": 5091,
      "ayretli": 5092,
      "akine": 5093,
      "aklasik": 5094,
      "Ġhavan": 5095,
      "Ġhalinde": 5096,
      "dime": 5097,
      "Ġpi": 5098,
      "Ġpek": 5099,
      "Ġperde": 5100,
      "Ġpamuk": 5101,
      "Ġpalindrom": 5102,
      "Ġfelse": 5103,
      "Ġfactorial": 5104,
      "lamini": 5105,
      "laming": 5106,
      "inige": 5107,
      "\\\"))": 5108,
      "Ã¼p": 5109,
      "likla": 5110,
      "Ġcor": 5111,
      "Ġciz": 5112,
      "Ġcika": 5113,
      "Ġcikip": 5114,
      "ĠTelefon": 5115,
      "amsun": 5116,
      "amyon": 5117,
      "ĠKah": 5118,
      "Ġederiz": 5119,
      "Ġederse": 5120,
      "aton": 5121,
      "atmadan": 5122,
      "atlasa": 5123,
      "Ġeklen": 5124,
      "Ġgundur": 5125,
      "Ġguncel": 5126,
      "Ġand": 5127,
      "Ġanki": 5128,
      "Ġancak": 5129,
      "asim": 5130,
      "asifik": 5131,
      "Ġvermeden": 5132,
      "Ġvermeyen": 5133,
      "Ġverecek": 5134,
      "kati": 5135,
      "lemeye": 5136,
      "Ġuzayda": 5137,
      "Ġuzunt": 5138,
      "olcumu": 5139,
      "Ġonar": 5140,
      "Ġonler": 5141,
      "Ġonem": 5142,
      "Ġonlarin": 5143,
      "Ġonlara": 5144,
      "Ġonceden": 5145,
      "Ġyaris": 5146,
      "isdigit": 5147,
      "Ġkoyarak": 5148,
      "rabzon": 5149,
      "negin": 5150,
      "baca": 5151,
      "Ġengel": 5152,
      "Ġchat": 5153,
      "ĠcÃ¼m": 5154,
      "Ġcuruk": 5155,
      "Ġcayi": 5156,
      "ĠOfke": 5157,
      "Ġbal": 5158,
      "Ġbasan": 5159,
      "ĠInternet": 5160,
      "ĠIcin": 5161,
      "ÅŁte": 5162,
      "ĠHis": 5163,
      "ĠHangisi": 5164,
      "ĠHic": 5165,
      "ĠHicbir": 5166,
      "ĠBirlikte": 5167,
      "Ġinci": 5168,
      "Ġindir": 5169,
      "ĠYemek": 5170,
      "ĠYilin": 5171,
      "Ġyaziyoruz": 5172,
      "Ġcikarma": 5173,
      "siyim": 5174,
      "siydi": 5175,
      "siyel": 5176,
      "leridir": 5177,
      "ĠColu": 5178,
      "ĠCevap": 5179,
      "ĠCelsius": 5180,
      "Ġruya": 5181,
      "Ġref": 5182,
      "ĠDini": 5183,
      "ĠDolu": 5184,
      "Ġbildirim": 5185,
      "ĠGeri": 5186,
      "iyez": 5187,
      "lenmek": 5188,
      "lenmis": 5189,
      "lenemez": 5190,
      "Ġistek": 5191,
      "Ġistegi": 5192,
      "Ġdoga": 5193,
      "Ġdogmus": 5194,
      "Ġarmut": 5195,
      "Ġartinca": 5196,
      "ĠMetin": 5197,
      "ĠMugla": 5198,
      "meliyim": 5199,
      "mesinden": 5200,
      "Ġayn": 5201,
      "Ġelle": 5202,
      "Ġamaci": 5203,
      "Ġgerce": 5204,
      "Ġgormem": 5205,
      "Ġgorulur": 5206,
      "Ġettir": 5207,
      "Ġettik": 5208,
      "Ġettim": 5209,
      "Ġettigin": 5210,
      "Ġkardesi": 5211,
      "Ġsonda": 5212,
      "Ġsondaki": 5213,
      "Ġliraya": 5214,
      "Ġsorum": 5215,
      "Ġsorusu": 5216,
      "Ġsoruldugun": 5217,
      "lindir": 5218,
      "Ġgiden": 5219,
      "gretmen": 5220,
      "Ġseyde": 5221,
      "Ġkitabi": 5222,
      "ĠOnlar": 5223,
      "Ġsaatin": 5224,
      "Ġsaatini": 5225,
      "diklari": 5226,
      "diktan": 5227,
      "diklerimi": 5228,
      "Ġ168": 5229,
      "mamis": 5230,
      "Ġkendim": 5231,
      "Ġkalb": 5232,
      "Ġkalmaz": 5233,
      "Ġkalmaya": 5234,
      "Ġadima": 5235,
      "Ġdonmesi": 5236,
      "Ġdonanim": 5237,
      "Ġkelimesine": 5238,
      "Ġduyar": 5239,
      "Ġ1985": 5240,
      "Ġ1990": 5241,
      "Ġekleyip": 5242,
      "vadaki": 5243,
      "liyoruz": 5244,
      "simi": 5245,
      "caklar": 5246,
      "caksin": 5247,
      "cakgon": 5248,
      "Ġdegisim": 5249,
      "Ġdogrudur": 5250,
      "Ġmodu": 5251,
      "Ġmolekul": 5252,
      "Ġbilgisayarda": 5253,
      "Ġbilgisayarlarin": 5254,
      "Ġtekn": 5255,
      "Ġdenem": 5256,
      "Ġhissi": 5257,
      "ĠÃ§atlasa": 5258,
      "ĠPo": 5259,
      "ĠPik": 5260,
      "Ġmasa": 5261,
      "Ġmatar": 5262,
      "Ġalfa": 5263,
      "Ġyuzey": 5264,
      "Ġgecsin": 5265,
      "Ġgecmis": 5266,
      "Ġgecerim": 5267,
      "Ġislanir": 5268,
      "Ġisleyen": 5269,
      "ludag": 5270,
      "lerinle": 5271,
      "Ã¶mert": 5272,
      "ĠGunaydin": 5273,
      "Ġilgini": 5274,
      "ĠadÄ±n": 5275,
      "arpuz": 5276,
      "Ġsever": 5277,
      "Ġsevginin": 5278,
      "Ġyaparim": 5279,
      "Ġbolum": 5280,
      "Ġbolup": 5281,
      "Ġbolumu": 5282,
      "Ġdusunur": 5283,
      "Ġdusunmem": 5284,
      "Ġdusunmeyi": 5285,
      "Ġsurede": 5286,
      "Ġsuresi": 5287,
      "Ġogrendim": 5288,
      "Ġogrenerek": 5289,
      "Ã¼nÃ¼n": 5290,
      "Ã¼ndeki": 5291,
      "Ġyansi": 5292,
      "Ġyanar": 5293,
      "Ġyangini": 5294,
      "Ġyansit": 5295,
      "Ġkure": 5296,
      "Ġkuru": 5297,
      "Ġkuramam": 5298,
      "Ġkuresel": 5299,
      "Ġuzunsa": 5300,
      "Ġ(`": 5301,
      "Ġakiyor": 5302,
      "Ġakciger": 5303,
      "Ġakrep": 5304,
      "Ġdegerlere": 5305,
      "Ġdurur": 5306,
      "Ġagaci": 5307,
      "Ġikisini": 5308,
      "gunun": 5309,
      "Ġyagmadi": 5310,
      "Ġtamami": 5311,
      "Ġtamamlar": 5312,
      "Ġzorlasir": 5313,
      "Ġzorlaniyorum": 5314,
      "ezegen": 5315,
      "ezopotam": 5316,
      "Ġkisadir": 5317,
      "Ġkisiden": 5318,
      "sizdir": 5319,
      "layinca": 5320,
      "larimi": 5321,
      "larimizi": 5322,
      "usula": 5323,
      "Ġbaglayan": 5324,
      "Ġisigin": 5325,
      "dinle": 5326,
      "lÄ±k": 5327,
      "tansiyel": 5328,
      "abilen": 5329,
      "Ġkutle": 5330,
      "Ġkutbu": 5331,
      "Ġoncesi": 5332,
      "Ġkonulari": 5333,
      "lasmak": 5334,
      "Ġprotein": 5335,
      "Ġelemanin": 5336,
      "Ġyukari": 5337,
      "Ġagirlik": 5338,
      "Ġagirligi": 5339,
      "Ġagirligini": 5340,
      "Ġagirlasinca": 5341,
      "Ġacili": 5342,
      "Ġacilari": 5343,
      "Ġaciyor": 5344,
      "Ġmutlak": 5345,
      "Ġmutlul": 5346,
      "Ġ*=": 5347,
      "Ġbenden": 5348,
      "Ġbelli": 5349,
      "ĠFransa": 5350,
      "ĠFatma": 5351,
      "ĠVan": 5352,
      "ĠVenus": 5353,
      "Ġbakim": 5354,
      "Ġbakmayi": 5355,
      "Ġbakalim": 5356,
      "Ġkonusan": 5357,
      "Ġegitim": 5358,
      "Ġparcasi": 5359,
      "Ġparcasiyim": 5360,
      "Ġdilde": 5361,
      "Ġortaya": 5362,
      "Ġortadan": 5363,
      "Ġyurum": 5364,
      "Ġyeniden": 5365,
      "ĠSence": 5366,
      "Ġgostermek": 5367,
      "Ġkarsilik": 5368,
      "Ġbelirsiz": 5369,
      "Ġkorkar": 5370,
      "Ġsicakligi": 5371,
      "adÄ±n": 5372,
      "bildigi": 5373,
      "Ġsanat": 5374,
      "Ġsanirim": 5375,
      "Ġyetenek": 5376,
      "Ġyetiskin": 5377,
      "mayiz": 5378,
      "Ġdurustce": 5379,
      "Ġkaplan": 5380,
      "Ġkapali": 5381,
      "arisi": 5382,
      "arisik": 5383,
      "Ġgeldi": 5384,
      "Ġgelmez": 5385,
      "Ġcikiyorum": 5386,
      "Ġsence": 5387,
      "lardaki": 5388,
      "Ġyazarak": 5389,
      "Ġokumus": 5390,
      "Ġhissediyor": 5391,
      "Ġhissedemem": 5392,
      "Ġharfler": 5393,
      "otu": 5394,
      "Ġcektigi": 5395,
      "Ġalani": 5396,
      "Ġyaklasmaktir": 5397,
      "Ġesya": 5398,
      "Ġdolar": 5399,
      "Ġhaksizlik": 5400,
      "Ġdinlenmis": 5401,
      "Ġdinlenip": 5402,
      "Ġdinlenmeye": 5403,
      "Ġdinlendirir": 5404,
      "Ġgezegendir": 5405,
      "Sence": 5406,
      "ĠhesaplarÄ±m": 5407,
      "tina": 5408,
      "Ġdavrana": 5409,
      "Ġkoymak": 5410,
      "Ġkoyuyorum": 5411,
      "Ġhayvansa": 5412,
      "Ġhayvanlardir": 5413,
      "Ġsinemaya": 5414,
      "Ġgozun": 5415,
      "Ġcevirip": 5416,
      "Ġsiralamasi": 5417,
      "letim": 5418,
      "erince": 5419,
      "Ġ240": 5420,
      "Ġgirer": 5421,
      "Ġacmak": 5422,
      "Ġturleri": 5423,
      "Ġturunu": 5424,
      "Ġturlu": 5425,
      "Ġtutmadan": 5426,
      "Ġmolasi": 5427,
      "Gunde": 5428,
      "Gunaydin": 5429,
      "ĠRamazan": 5430,
      "Ġtumden": 5431,
      "Ġmetod": 5432,
      "Ġegitildigim": 5433,
      "ĠgeliÅŁtirdi": 5434,
      "ĠkÃ¼tÃ¼": 5435,
      "Ġcihazdir": 5436,
      "ĠÅŁirket": 5437,
      "Ikisi": 5438,
      "Ġguclendir": 5439,
      "Ġcozer": 5440,
      "Ġcozmeye": 5441,
      "ĠKardesi": 5442,
      "Ġonerirsin": 5443,
      "Ġaksamdan": 5444,
      "Ġtersine": 5445,
      "Ġkalabilir": 5446,
      "Ġkalacak": 5447,
      "Ġyasayan": 5448,
      "Ġyasamasini": 5449,
      "Ġtatlidir": 5450,
      "Ġdenizleri": 5451,
      "Ġcanin": 5452,
      "Sayi": 5453,
      "Ġilerlemeyi": 5454,
      "Ġbirakir": 5455,
      "Ġbirakiyorum": 5456,
      "Ġbirakmadan": 5457,
      "Ġbirbirinin": 5458,
      "Ġyaptigin": 5459,
      "Ġedebilirim": 5460,
      "Ġplani": 5461,
      "Ġsisteminde": 5462,
      "Ġbiter": 5463,
      "Ġbitti": 5464,
      "Ġhazirlar": 5465,
      "Ġhazirlik": 5466,
      "Ġdavranmak": 5467,
      "Ġalisir": 5468,
      "Ġalismak": 5469,
      "Ġayakta": 5470,
      "Ġgitmek": 5471,
      "Ġgitmeye": 5472,
      "Ġaciklar": 5473,
      "Ġenerjidir": 5474,
      "ilindir": 5475,
      "Ġtutari": 5476,
      "Ġanahtari": 5477,
      "Ġverileri": 5478,
      "Ġverilen": 5479,
      "Ġverilerin": 5480,
      "Ġverilerden": 5481,
      "Ġsecersin": 5482,
      "Ġdogrucuyum": 5483,
      "Ġsinirlari": 5484,
      "Ġsinirlarim": 5485,
      "ĠBasta": 5486,
      "Haya": 5487,
      "Ġulas": 5488,
      "Ġulasir": 5489,
      "Ġolsaydi": 5490,
      "Ġsozu": 5491,
      "ĠmodÃ¼l": 5492,
      "Ġmetreyi": 5493,
      "Ġtavsan": 5494,
      "Ġbitirir": 5495,
      "Ġbitirmek": 5496,
      "Ġrahatlatir": 5497,
      "Ġkosu": 5498,
      "Ġsorularinda": 5499,
      "Ġ365": 5500,
      "Ġbilinir": 5501,
      "Ġbilinen": 5502,
      "Ġakilli": 5503,
      "Ġakilda": 5504,
      "egisim": 5505,
      "Ġikiz": 5506,
      "ebini": 5507,
      "tekleri": 5508,
      "Ġbeklemeyi": 5509,
      "Ġisareti": 5510,
      "Ġmerdiv": 5511,
      "Ġneresidir": 5512,
      "Ġetkili": 5513,
      "Ġetkiler": 5514,
      "Ġodaklanamiyorum": 5515,
      "Ġdagitan": 5516,
      "ĠAralik": 5517,
      "Ġcicekler": 5518,
      "kusuzluk": 5519,
      "Ġlacivert": 5520,
      "ĠSabahlari": 5521,
      "ĠListe": 5522,
      "lesir": 5523,
      "Ġkizar": 5524,
      "Ġkizlar": 5525,
      "Ġvucudu": 5526,
      "Ġyakindan": 5527,
      "Ġsebep": 5528,
      "Ġsebebini": 5529,
      "Ġseferde": 5530,
      "Ġseferinde": 5531,
      "Ġkalkti": 5532,
      "Ġdengeli": 5533,
      "Ġdengeyi": 5534,
      "Ġmaddenin": 5535,
      "Ġsurece": 5536,
      "ĠBilmedigim": 5537,
      "ĠKutup": 5538,
      "values": 5539,
      "Ġdokulur": 5540,
      "Ġdortte": 5541,
      "Ġyogurt": 5542,
      "Ġfikra": 5543,
      "Ġuzaklastir": 5544,
      "Ġdusunceli": 5545,
      "Ġdusunceleri": 5546,
      "Ġdusuncelerimiz": 5547,
      "ĠOkyanusu": 5548,
      "Ġbesinleri": 5549,
      "ĠiÅŁi": 5550,
      "Ġminer": 5551,
      "Ġkavra": 5552,
      "Ġkavram": 5553,
      "Ġsayalim": 5554,
      "Ġzihinde": 5555,
      "Ġgecisi": 5556,
      "okyo": 5557,
      "Ġverebilirsin": 5558,
      "Ġevde": 5559,
      "Ġevre": 5560,
      "ĠYazin": 5561,
      "Ġsikkin": 5562,
      "Ġbozul": 5563,
      "Ġkazanilir": 5564,
      "Ġatama": 5565,
      "Ġdegistirmek": 5566,
      "Ankara": 5567,
      "Insanlar": 5568,
      "Ġustu": 5569,
      "eneklerin": 5570,
      "Ġyumusak": 5571,
      "Ġyatmak": 5572,
      "Ġ4500": 5573,
      "Ġform": 5574,
      "Ġekranlardan": 5575,
      "ĠOrta": 5576,
      "ĠOrnegin": 5577,
      "Ġuykum": 5578,
      "Ġprojeye": 5579,
      "Ġprojesinin": 5580,
      "ĠAgri": 5581,
      "Ġayrildik": 5582,
      "Ġkarakteri": 5583,
      "ecegim": 5584,
      "Ġsinav": 5585,
      "Ġsinavim": 5586,
      "Ġtopraklari": 5587,
      "Ġtopraklarinin": 5588,
      "Ġsehridir": 5589,
      "ĠCanakkale": 5590,
      "Ġbaslayamiyorum": 5591,
      "Ġmaddelerdir": 5592,
      "Ġifadesi": 5593,
      "Ġtanitir": 5594,
      "Ġtanidik": 5595,
      "Ġgezersin": 5596,
      "ĠKisaca": 5597,
      "omert": 5598,
      "Ġotomatik": 5599,
      "Ġguller": 5600,
      "Ġgulum": 5601,
      "Ġgazdir": 5602,
      "Ġnormaldir": 5603,
      "Ġtakim": 5604,
      "Ġezber": 5605,
      "Ġezbere": 5606,
      "ĠDevleti": 5607,
      "Ġdonemlere": 5608,
      "Ġgectigini": 5609,
      "Ġproblemi": 5610,
      "Ġproblemlerinde": 5611,
      "Ġcanlilarin": 5612,
      "Ġfikirler": 5613,
      "ĠYanindayim": 5614,
      "Ġhayatin": 5615,
      "ĠMerak": 5616,
      "Ġtemizler": 5617,
      "loat": 5618,
      "ĠJaponya": 5619,
      "Ġyemektir": 5620,
      "Ġisinir": 5621,
      "Ġsunmak": 5622,
      "Ġkatidir": 5623,
      "Ġyagiyor": 5624,
      "ĠBursa": 5625,
      "Ġtoplumun": 5626,
      "Ġbulutlar": 5627,
      "Ġsevgiyi": 5628,
      "Ġkurallar": 5629,
      "nimiz": 5630,
      "verest": 5631,
      "ĠKendinle": 5632,
      "lasip": 5633,
      "Ġdiyelim": 5634,
      "Ġdiyemez": 5635,
      "cigerler": 5636,
      "Ġkaliplara": 5637,
      "Ġgokyuzunde": 5638,
      "ĠBunlari": 5639,
      "ĠAfiyet": 5640,
      "Ġcalisti": 5641,
      "Ġsikiliyor": 5642,
      "Ġgoturur": 5643,
      "Ġdinlemekten": 5644,
      "Ġkorkmaz": 5645,
      "Ġkorkuyorum": 5646,
      "Ġsaniyedir": 5647,
      "ĠZamanla": 5648,
      "giltere": 5649,
      "ĠMutluluk": 5650,
      "Sabahlari": 5651,
      "mpul": 5652,
      "Ġblok": 5653,
      "Ġbizim": 5654,
      "ĠbugÃ¼n": 5655,
      "Ġbugday": 5656,
      "Ġkucucuk": 5657,
      "Ġogleden": 5658,
      "Ġahlak": 5659,
      "Ġahsap": 5660,
      "Ġavuc": 5661,
      "Ġarkadasim": 5662,
      "Ġgoruruz": 5663,
      "ĠÃ§arpÄ±m": 5664,
      "Ġcikolatada": 5665,
      "Ġozgurluk": 5666,
      "Ġyasayamam": 5667,
      "Ġyalanciyim": 5668,
      "Ġkaynaklara": 5669,
      "ĠOzellikle": 5670,
      "ebilmektir": 5671,
      "Ġumut": 5672,
      "Ġemp": 5673,
      "Ġduzeltir": 5674,
      "Ġodaya": 5675,
      "lanmasidir": 5676,
      "Ġyayilir": 5677,
      "Ġyaygin": 5678,
      "ĠAntalya": 5679,
      "ĠKova": 5680,
      "Ġgunleridir": 5681,
      "Ġinceleyen": 5682,
      "Ġolaylari": 5683,
      "Ġsaygiyla": 5684,
      "Ġkullanirlar": 5685,
      "Ġsevdikleri": 5686,
      "Ġsevdikleriyle": 5687,
      "ĠHerkesin": 5688,
      "ĠAklindaki": 5689,
      "aktÃ¶riyel": 5690,
      "Ġbirikimlerin": 5691,
      "Ġatasozu": 5692,
      "Ġmotivasyon": 5693,
      "ĠDurustluk": 5694,
      "Kaplumbaga": 5695,
      "abucu": 5696,
      "Ġbeynin": 5697,
      "Ġmikna": 5698,
      "Ġtebrikler": 5699,
      "Ġsantimetre": 5700,
      "Ġsantimetredir": 5701,
      "Ġolcude": 5702,
      "Ġolculebilir": 5703,
      "Ġtasinir": 5704,
      "Ġanagram": 5705,
      "Ġbacakli": 5706,
      "Ġekleyelim": 5707,
      "Ġhafifletir": 5708,
      "Ġkaynagidir": 5709,
      "Ġfirsat": 5710,
      "Ġfirsati": 5711,
      "ĠbaÅŁkalar": 5712,
      "Ġzinciri": 5713,
      "ĠKediler": 5714,
      "Ġsepette": 5715,
      "Ġulke": 5716,
      "Ġotcul": 5717,
      "ĠSakin": 5718,
      "Ġsarj": 5719,
      "Ġgelecege": 5720,
      "ĠKonusmak": 5721,
      "Ġcumhurbaskani": 5722,
      "Ġcalistiran": 5723,
      "ĠGuven": 5724,
      "Ġarastir": 5725,
      "Ġkendinden": 5726,
      "Ġyukselen": 5727,
      "ĠFarkli": 5728,
      "Ġcekinme": 5729,
      "ĠBasarilar": 5730,
      "Ġelektronik": 5731,
      "Ġcagirirsin": 5732,
      "Ġugras": 5733,
      "Durustluk": 5734,
      "Kutup": 5735,
      "Marmara": 5736,
      "ĠSinir": 5737,
      "masÄ±": 5738,
      "Ġmetal": 5739,
      "Ġsemsiye": 5740,
      "Ġatiklar": 5741,
      "Ġatandi": 5742,
      "ĠgÃ¶l": 5743,
      "Ġpirinc": 5744,
      "Ġkosesi": 5745,
      "ĠHareket": 5746,
      "iknatis": 5747,
      "Ġaractir": 5748,
      "Ġilkemdir": 5749,
      "Ġcevrilidir": 5750,
      "ĠVucudun": 5751,
      "Ġyetisidir": 5752,
      "Ġboyutta": 5753,
      "gilizce": 5754,
      "Ġdoktora": 5755,
      "Ġzihinsel": 5756,
      "Ġerisebiliyor": 5757,
      "Ġerisimim": 5758,
      "aktÃ¶riyeli": 5759,
      "ĠatasÃ¶zÃ¼": 5760,
      "Ġkarbondioksiti": 5761,
      "SevinÃ§": 5762,
      "Antalya": 5763,
      "alesef": 5764,
      "elistiricim": 5765,
      "ititler": 5766,
      "nettar": 5767,
      "pitalize": 5768,
      "phaneyle": 5769,
      "smanli": 5770,
      "zemeler": 5771,
      "Ġyulaf": 5772,
      "Ġmalzemeler": 5773,
      "Ġvakti": 5774,
      "Ġzayif": 5775,
      "Ġyapabiliyorsun": 5776,
      "Ġhavanin": 5777,
      "Ġperdeleri": 5778,
      "lamingo": 5779,
      "Ġchatgpt": 5780,
      "ĠcÃ¼mle": 5781,
      "Ġsoruldugunda": 5782,
      "cakgonul": 5783,
      "ezopotamya": 5784,
      "ĠkÃ¼tÃ¼phaneyle": 5785,
      "ĠmodÃ¼lÃ¼ndeki": 5786,
      "((": 5787,
      "():\\": 5788,
      "()\\": 5789,
      "(\\\",": 5790,
      ")\"},": 5791,
      ".\"": 5792,
      ".\\\"": 5793,
      "=\\\"": 5794,
      "Ad": 5795,
      "Adalet": 5796,
      "Ca": 5797,
      "Cevap": 5798,
      "Demir": 5799,
      "Diyez": 5800,
      "Ege": 5801,
      "Elektrik": 5802,
      "FaktÃ¶riyeli": 5803,
      "Gece": 5804,
      "Hos": 5805,
      "Harika": 5806,
      "Ic": 5807,
      "Ki": 5808,
      "Kucuk": 5809,
      "Kedi": 5810,
      "Kisa": 5811,
      "Mer": 5812,
      "Mevsimler": 5813,
      "Oz": 5814,
      "Ogle": 5815,
      "Ogren": 5816,
      "Pazar": 5817,
      "Ro": 5818,
      "Ses": 5819,
      "Suyun": 5820,
      "Sicak": 5821,
      "Sakla": 5822,
      "Ta": 5823,
      "Veri": 5824,
      "Yet": 5825,
      "Yarim": 5826,
      "af": 5827,
      "adin": 5828,
      "bana": 5829,
      "bos": 5830,
      "eleman": 5831,
      "guyle": 5832,
      "nn": 5833,
      "nCikti": 5834,
      "nselamla": 5835,
      "return": 5836,
      "rimi": 5837,
      "ĠKullanicidan": 5838,
      "ĠÅŀ": 5839,
      "Ġ\")": 5840,
      "erini": 5841,
      "rolu": 5842,
      "tap": 5843,
      "taban": 5844,
      "unlar": 5845,
      "Ġ[]\\": 5846,
      "import": 5847,
      "hay": 5848,
      "ĠSus": 5849,
      "ĠSek": 5850,
      "ĠSuyun": 5851,
      "ĠStres": 5852,
      "Ġam": 5853,
      "ĠBed": 5854,
      "ĠBurada": 5855,
      "ĠButun": 5856,
      "strip": 5857,
      "capitalize": 5858,
      "Ġtaban": 5859,
      "emen": 5860,
      "yaÅŁ": 5861,
      "Ġgelince": 5862,
      "ĠTas": 5863,
      "ĠTop": 5864,
      "ĠTamam": 5865,
      "ĠKos": 5866,
      "ĠKonu": 5867,
      "ĠKullanicinin": 5868,
      "ĠKamyon": 5869,
      "ĠKarpuz": 5870,
      "neler": 5871,
      "Birine": 5872,
      "Ã§i": 5873,
      "ĠHarika": 5874,
      "ĠYol": 5875,
      "ĠYalan": 5876,
      "ĠYaklasik": 5877,
      "ikolata": 5878,
      "ĠEl": 5879,
      "ĠEgit": 5880,
      "ĠEsit": 5881,
      "ĠEvde": 5882,
      "ĠElektrik": 5883,
      "ĠCev": 5884,
      "ĠCita": 5885,
      "ĠCocuk": 5886,
      "ĠCikolata": 5887,
      "ĠDa": 5888,
      "ĠDag": 5889,
      "ĠDuzenli": 5890,
      "ĠGecmis": 5891,
      "ĠGezegen": 5892,
      "ĠGelistiricim": 5893,
      "ĠMukemmel": 5894,
      "ĠMevsimler": 5895,
      "Ġkarelerini": 5896,
      "Ġsonlandir": 5897,
      "Ġsort": 5898,
      ")))\"}]}": 5899,
      "dikdortgen": 5900,
      "Ġcikarirsin": 5901,
      "Ġkaldirabilirsin": 5902,
      "evrimi": 5903,
      "Ġuyelik": 5904,
      "ĠkullanalÄ±m": 5905,
      "Ġsonradan": 5906,
      "ĠdeÄŁerini": 5907,
      "ĠolanÄ±": 5908,
      "Ġolanlari": 5909,
      "Ġikisine": 5910,
      "Ġcarpim": 5911,
      "ĠfarkÄ±": 5912,
      "Ġfarkini": 5913,
      "Ä±yla": 5914,
      "Ġelemanini": 5915,
      "ĠUludag": 5916,
      "ĠVeri": 5917,
      "ĠVerilen": 5918,
      "Ġortasindan": 5919,
      "Ġkontrolu": 5920,
      "ĠkontrolÃ¼": 5921,
      "bilgi": 5922,
      "Liste": 5923,
      "ĠZih": 5924,
      "Bence": 5925,
      "Ġdiyez": 5926,
      "Ġhaftanin": 5927,
      "ĠHavadaki": 5928,
      "ĠnasÄ±lsÄ±n": 5929,
      "Iyiyim": 5930,
      "ĠAnlam": 5931,
      "ĠAnliyorum": 5932,
      "ĠAnnem": 5933,
      "Ġgirilen": 5934,
      "Ġsatiridir": 5935,
      "ĠInsanlarin": 5936,
      "medigini": 5937,
      "ĠTekrar": 5938,
      "Ġcumleyi": 5939,
      "Ġdonduren": 5940,
      "Hata": 5941,
      "Ġkosulu": 5942,
      "Ġislemi": 5943,
      "ĠIlkbahar": 5944,
      "Ġhalka": 5945,
      "ĠListeyi": 5946,
      "Ġdondurursun": 5947,
      "ĠolduÄŁunu": 5948,
      "ĠInanc": 5949,
      "Ġdegistirebilir": 5950,
      "Anliyorum": 5951,
      "Annem": 5952,
      "Ġtanit": 5953,
      "Ġbosluklardan": 5954,
      "ĠDevekusu": 5955,
      "Ġtemizlerim": 5956,
      "ĠKendimi": 5957,
      "ĠCikar": 5958,
      "ĠCivi": 5959,
      "\\\":\\": 5960,
      "ĠMutevazi": 5961,
      "ĠAlmanya": 5962,
      "ĠOzgurluk": 5963,
      "Ġparantezle": 5964,
      "Kendimi": 5965,
      "ĠOgleden": 5966,
      "Ġindeks": 5967,
      "Ġbiriktirerek": 5968,
      "Uzun": 5969,
      "ĠYalnizlik": 5970,
      "Koda": 5971,
      "Yapay": 5972,
      "ĠsayÄ±dan": 5973,
      "dÃ¶rtgen": 5974,
      "dÃ¶rtgenin": 5975,
      "Ġhacmi": 5976,
      "Ġhacmini": 5977,
      "Bitkiler": 5978,
      "Daire": 5979,
      "Ġkopya": 5980,
      "ĠOtobus": 5981,
      "ĠDuygularim": 5982,
      "ĠGorusmek": 5983,
      "Ġcarparsin": 5984,
      "Deniz": 5985,
      "Kendini": 5986,
      "lugunu": 5987,
      "Ġaff": 5988,
      "566": 5989,
      "hoÅŁ": 5990,
      "ĠSorularini": 5991,
      "Pazartesi": 5992,
      "evrimiÃ§i": 5993,
      "(-": 5994,
      "()\"}]}": 5995,
      "():": 5996,
      ").\"}]}": 5997,
      ".),": 5998,
      "05": 5999,
      "06": 6000,
      "26": 6001,
      "29": 6002,
      "250": 6003,
      "33": 6004,
      "60": 6005,
      "67": 6006,
      "AM": 6007,
      "Acik": 6008,
      "Acele": 6009,
      "AdÄ±n": 6010,
      "Atom": 6011,
      "Bur": 6012,
      "Burn": 6013,
      "Bazen": 6014,
      "Basit": 6015,
      "Ces": 6016,
      "Can": 6017,
      "Dik": 6018,
      "Dev": 6019,
      "DoÄŁ": 6020,
      "ER": 6021,
      "Eli": 6022,
      "Esit": 6023,
      "Etekleri": 6024,
      "Fonksiyon": 6025,
      "False": 6026,
      "Fransa": 6027,
      "Gel": 6028,
      "Guv": 6029,
      "Goz": 6030,
      "Gec": 6031,
      "GÃ¶z": 6032,
      "GÃ¼zel": 6033,
      "Gayretli": 6034,
      "HÄ±": 6035,
      "Hak": 6036,
      "HAB": 6037,
      "Ispanya": 6038,
      "Japonya": 6039,
      "Kur": 6040,
      "Kelim": 6041,
      "Kah": 6042,
      "Kirmizi": 6043,
      "Kulak": 6044,
      "Keder": 6045,
      "Min": 6046,
      "Mad": 6047,
      "Mod": 6048,
      "Misir": 6049,
      "Memnuniyetle": 6050,
      "Mevcut": 6051,
      "Naber": 6052,
      "Olum": 6053,
      "Olur": 6054,
      "Penguen": 6055,
      "Pozitif": 6056,
      "Programlama": 6057,
      "Pabucu": 6058,
      "Rusya": 6059,
      "Ruzgar": 6060,
      "SÄ±": 6061,
      "SÃ¶z": 6062,
      "Sincaplar": 6063,
      "Silindir": 6064,
      "Telefonu": 6065,
      "Tav": 6066,
      "Uc": 6067,
      "Umut": 6068,
      "Vicdan": 6069,
      "Verilen": 6070,
      "Yuz": 6071,
      "Yalniz": 6072,
      "Yunanistan": 6073,
      "Yorgun": 6074,
      "]`": 6075,
      "ai": 6076,
      "ant": 6077,
      "ade": 6078,
      "agin": 6079,
      "ahat": 6080,
      "afet": 6081,
      "amayiz": 6082,
      "bl": 6083,
      "bini": 6084,
      "besinde": 6085,
      "brek": 6086,
      "cz": 6087,
      "car": 6088,
      "cinin": 6089,
      "cÃ¼k": 6090,
      "cstring": 6091,
      "dent": 6092,
      "duk": 6093,
      "dya": 6094,
      "dra": 6095,
      "diye": 6096,
      "dede": 6097,
      "dom": 6098,
      "except": 6099,
      "fla": 6100,
      "fsa": 6101,
      "fede": 6102,
      "fiza": 6103,
      "gÃ¼": 6104,
      "gne": 6105,
      "gmen": 6106,
      "goru": 6107,
      "gzer": 6108,
      "hr": 6109,
      "hen": 6110,
      "hangi": 6111,
      "hra": 6112,
      "hesap": 6113,
      "hing": 6114,
      "hicbir": 6115,
      "iir": 6116,
      "ilan": 6117,
      "ide": 6118,
      "istir": 6119,
      "isaret": 6120,
      "jen": 6121,
      "kel": 6122,
      "key": 6123,
      "keni": 6124,
      "klama": 6125,
      "kÃ¼r": 6126,
      "kele": 6127,
      "keder": 6128,
      "kÃ¶tÃ¼": 6129,
      "lm": 6130,
      "lmak": 6131,
      "lmek": 6132,
      "ms": 6133,
      "mim": 6134,
      "muz": 6135,
      "miyle": 6136,
      "mimi": 6137,
      "mobil": 6138,
      "naktif": 6139,
      "oh": 6140,
      "oro": 6141,
      "ost": 6142,
      "ove": 6143,
      "oley": 6144,
      "olekul": 6145,
      "pa": 6146,
      "par": 6147,
      "pozitif": 6148,
      "run": 6149,
      "ret": 6150,
      "rasi": 6151,
      "rusu": 6152,
      "sir": 6153,
      "seri": 6154,
      "smini": 6155,
      "suzluk": 6156,
      "sozluk": 6157,
      "tum": 6158,
      "tmek": 6159,
      "tÄ±m": 6160,
      "tup": 6161,
      "tfa": 6162,
      "tugu": 6163,
      "ularim": 6164,
      "ulebilir": 6165,
      "umadan": 6166,
      "vasi": 6167,
      "vren": 6168,
      "vdesi": 6169,
      "virus": 6170,
      "ws": 6171,
      "yok": 6172,
      "yte": 6173,
      "yken": 6174,
      "yuksek": 6175,
      "ype": 6176,
      "za": 6177,
      "zi": 6178,
      "zlÄ±": 6179,
      "zurum": 6180,
      "zularim": 6181,
      "Ġl": 6182,
      "Ġrol": 6183,
      "ĠLi": 6184,
      "Ġlambda": 6185,
      "ntÃ¼": 6186,
      "ntisi": 6187,
      "lesik": 6188,
      "ledigi": 6189,
      "leye": 6190,
      "leyici": 6191,
      "iriz": 6192,
      "irdan": 6193,
      "sip": 6194,
      "silan": 6195,
      "era": 6196,
      "erir": 6197,
      "erler": 6198,
      "erine": 6199,
      "ereye": 6200,
      "erfor": 6201,
      "erber": 6202,
      "erdeki": 6203,
      "erzi": 6204,
      "lac": 6205,
      "lah": 6206,
      "lalim": 6207,
      "lalar": 6208,
      "ladim": 6209,
      "latan": 6210,
      "labilirim": 6211,
      "ladigini": 6212,
      "lasilir": 6213,
      "latabilir": 6214,
      "lastik": 6215,
      "Ġbin": 6216,
      "Ġbur": 6217,
      "Ġbut": 6218,
      "Ġbaz": 6219,
      "Ġburk": 6220,
      "ĠbÃ¶": 6221,
      "Ġbunda": 6222,
      "Ġbeyin": 6223,
      "Ġbec": 6224,
      "esen": 6225,
      "esem": 6226,
      "esmi": 6227,
      "eske": 6228,
      "rotein": 6229,
      "sat": 6230,
      "saat": 6231,
      "sayan": 6232,
      "sadece": 6233,
      "satis": 6234,
      "sabit": 6235,
      "saydi": 6236,
      "salata": 6237,
      "liÄŁ": 6238,
      "lisim": 6239,
      "lilit": 6240,
      "liÄŁini": 6241,
      "Ġked": 6242,
      "Ġkana": 6243,
      "Ġkup": 6244,
      "Ġkuv": 6245,
      "Ġkuyu": 6246,
      "Ġkron": 6247,
      "Ġkuzu": 6248,
      "Ġkula": 6249,
      "ĠkÃ¶tÃ¼": 6250,
      "Ġkinetik": 6251,
      "enen": 6252,
      "enlidir": 6253,
      "tay": 6254,
      "tane": 6255,
      "tatik": 6256,
      "tabani": 6257,
      "indo": 6258,
      "Ġdar": 6259,
      "Ġdor": 6260,
      "Ġdiyor": 6261,
      "Ġdusur": 6262,
      "Ġdolun": 6263,
      "unan": 6264,
      "unma": 6265,
      "unden": 6266,
      "undur": 6267,
      "unucu": 6268,
      "uncusu": 6269,
      "ary": 6270,
      "artik": 6271,
      "arari": 6272,
      "arator": 6273,
      "arbak": 6274,
      "Ġyel": 6275,
      "Ġyip": 6276,
      "Ġyonu": 6277,
      "Ġyilin": 6278,
      "Ġyola": 6279,
      "Ġyunuslar": 6280,
      "ilda": 6281,
      "ilmez": 6282,
      "ilkiler": 6283,
      "ast": 6284,
      "aslar": 6285,
      "ashing": 6286,
      "astane": 6287,
      "uru": 6288,
      "urul": 6289,
      "uruz": 6290,
      "ursun": 6291,
      "ursuz": 6292,
      "ondra": 6293,
      "ans": 6294,
      "anda": 6295,
      "anlik": 6296,
      "anka": 6297,
      "angoz": 6298,
      "stane": 6299,
      "Ġ['": 6300,
      "mesela": 6301,
      "Ġim": 6302,
      "Ġili": 6303,
      "Ġici": 6304,
      "Ġilan": 6305,
      "Ġica": 6306,
      "Ġilis": 6307,
      "Ġiter": 6308,
      "Ġiddi": 6309,
      "Ġilimiz": 6310,
      "Ġigne": 6311,
      "Ġmus": 6312,
      "Ġmek": 6313,
      "Ġmuz": 6314,
      "Ġmum": 6315,
      "Ġmark": 6316,
      "Ġmanyetik": 6317,
      "imar": 6318,
      "imde": 6319,
      "imsek": 6320,
      "ekten": 6321,
      "ekleme": 6322,
      "eklerinde": 6323,
      "eklamini": 6324,
      "ekkÃ¼r": 6325,
      "uce": 6326,
      "ucresi": 6327,
      "gec": 6328,
      "cisin": 6329,
      "cilik": 6330,
      "cikar": 6331,
      "ciyim": 6332,
      "ukat": 6333,
      "malik": 6334,
      "madigini": 6335,
      "masiyla": 6336,
      "Ġsol": 6337,
      "Ġserin": 6338,
      "limetredir": 6339,
      "Ġodan": 6340,
      "Ġoru": 6341,
      "Ġobur": 6342,
      "Ġolamiyorum": 6343,
      "uyarak": 6344,
      "lanin": 6345,
      "landa": 6346,
      "landigin": 6347,
      "lanmaya": 6348,
      "landiy": 6349,
      "larken": 6350,
      "ĠSay": 6351,
      "ĠSini": 6352,
      "ĠSine": 6353,
      "ĠSep": 6354,
      "ĠStrin": 6355,
      "ĠSincaplar": 6356,
      "ĠSira": 6357,
      "ĠSart": 6358,
      "ĠSamsun": 6359,
      "Ġbirinci": 6360,
      "Ġbirlesince": 6361,
      "ulus": 6362,
      "uldu": 6363,
      "ulmaz": 6364,
      "ulmem": 6365,
      "ulmus": 6366,
      "Ġai": 6367,
      "Ġali": 6368,
      "Ġade": 6369,
      "Ġagr": 6370,
      "Ġalarak": 6371,
      "Ġalas": 6372,
      "Ġacele": 6373,
      "Ġadam": 6374,
      "ĠaÅŁa": 6375,
      "Ġampul": 6376,
      "Ġdalidir": 6377,
      "usuna": 6378,
      "orsiyon": 6379,
      "orasyon": 6380,
      "Ġkasi": 6381,
      "Ġkaya": 6382,
      "Ġkayar": 6383,
      "Ġkafa": 6384,
      "Ġkabl": 6385,
      "Ġgok": 6386,
      "ĠgÃ¼n": 6387,
      "Ġgramdir": 6388,
      "Ġgurul": 6389,
      "edin": 6390,
      "edekleme": 6391,
      "yilar": 6392,
      "sindir": 6393,
      "sindeki": 6394,
      "Ġyasin": 6395,
      "Ġyati": 6396,
      "Ġyaliyor": 6397,
      "Ġyatar": 6398,
      "Ġyasina": 6399,
      "Ġyasiyor": 6400,
      "Ġyasinin": 6401,
      "Ġyaban": 6402,
      "Ġmisafir": 6403,
      "Ġmililit": 6404,
      "Ġmilimetredir": 6405,
      "Bilgi": 6406,
      "etlerin": 6407,
      "eterin": 6408,
      "Ġnemli": 6409,
      "Ä±labilir": 6410,
      "Ġbuyuyup": 6411,
      "icik": 6412,
      "icidir": 6413,
      "gisiklik": 6414,
      "Ġtip": 6415,
      "Ġtetik": 6416,
      "Ġtirn": 6417,
      "Ġsat": 6418,
      "ĠsabÄ±r": 6419,
      "Ġsamimi": 6420,
      "Ġsasir": 6421,
      "Ġhik": 6422,
      "Ġhucre": 6423,
      "Ġhenuz": 6424,
      "Ġhucresi": 6425,
      "izz": 6426,
      "izle": 6427,
      "izmiyle": 6428,
      "ĠBilin": 6429,
      "ĠBasit": 6430,
      "ĠBize": 6431,
      "ĠBeyin": 6432,
      "ĠBerlin": 6433,
      "sti": 6434,
      "stra": 6435,
      "stigi": 6436,
      "Ġolgun": 6437,
      "Ġolunur": 6438,
      "Ġolmanin": 6439,
      "uza": 6440,
      "uze": 6441,
      "uzdan": 6442,
      "iyat": 6443,
      "iyah": 6444,
      "iyarbak": 6445,
      "umde": 6446,
      "umcekler": 6447,
      "Ġdef": 6448,
      "Ġdep": 6449,
      "Ġdeva": 6450,
      "dirne": 6451,
      "cegimi": 6452,
      "ceÄŁini": 6453,
      "Ġ33": 6454,
      "Ġ39": 6455,
      "disine": 6456,
      "calar": 6457,
      "cagi": 6458,
      "calamak": 6459,
      "cacik": 6460,
      "cagiz": 6461,
      "Ġkacir": 6462,
      "Ġkacini": 6463,
      "Ġtaze": 6464,
      "Ġtart": 6465,
      "Ġtabak": 6466,
      "ilirsa": 6467,
      "ilirmak": 6468,
      "ope": 6469,
      "emik": 6470,
      "emedi": 6471,
      "ember": 6472,
      "Ġ47": 6473,
      "Ġ49": 6474,
      "rid": 6475,
      "Ġvarlik": 6476,
      "kilerin": 6477,
      "Ġzede": 6478,
      "Ġzarari": 6479,
      "yaci": 6480,
      "ĠAd": 6481,
      "ĠAsit": 6482,
      "ĠArti": 6483,
      "ĠAtom": 6484,
      "ĠAtina": 6485,
      "tisin": 6486,
      "tigim": 6487,
      "Ġyapim": 6488,
      "Ġyapiyorum": 6489,
      "Ġyapsam": 6490,
      "Ġyapmayi": 6491,
      "Ġyaptin": 6492,
      "Ġyapalim": 6493,
      "Ġyapmali": 6494,
      "Ġyapiyorsa": 6495,
      "Ġtopra": 6496,
      "Ġtoplama": 6497,
      "Ġtoplanir": 6498,
      "Ġ81": 6499,
      "Ġ800": 6500,
      "Ġ78": 6501,
      "Ġedelim": 6502,
      "Ġediyor": 6503,
      "Ġedece": 6504,
      "Ġedilmistir": 6505,
      "ayene": 6506,
      "ayseri": 6507,
      "eyn": 6508,
      "eykel": 6509,
      "akir": 6510,
      "Ġhacim": 6511,
      "Ġhalk": 6512,
      "tirme": 6513,
      "tirmez": 6514,
      "tirarak": 6515,
      "Ġpak": 6516,
      "Ġpat": 6517,
      "Ġpom": 6518,
      "Ġpayi": 6519,
      "Ġpersembe": 6520,
      "Ġpilav": 6521,
      "Ġperfor": 6522,
      "Ġplastik": 6523,
      "Ġporsiyon": 6524,
      "Ġpizz": 6525,
      "Ġpeyn": 6526,
      "Ġkisim": 6527,
      "Ġkilit": 6528,
      "Ġfloat": 6529,
      "ĠfaktÃ¶riyel": 6530,
      "Ġflamingo": 6531,
      "laman": 6532,
      "lamis": 6533,
      "lamani": 6534,
      "Ġ99": 6535,
      "Ġ900": 6536,
      "\\\")": 6537,
      "Ã¼tler": 6538,
      "Ã¼ntÃ¼": 6539,
      "likler": 6540,
      "Ġcis": 6541,
      "Ġnelerden": 6542,
      "Ġnecisin": 6543,
      "ĠTat": 6544,
      "ĠTemm": 6545,
      "ĠTokyo": 6546,
      "amir": 6547,
      "amet": 6548,
      "ĠKis": 6549,
      "ĠKisi": 6550,
      "ĠKita": 6551,
      "ĠKopek": 6552,
      "ĠKuslar": 6553,
      "ĠKasim": 6554,
      "Ġicim": 6555,
      "Ġictim": 6556,
      "Ġicimiz": 6557,
      "Ġicmeliyim": 6558,
      "Ġederken": 6559,
      "Ġ08": 6560,
      "Ġ09": 6561,
      "oktor": 6562,
      "atin": 6563,
      "atematik": 6564,
      "utbol": 6565,
      "utfen": 6566,
      "Ġekliyoruz": 6567,
      "Ġekstra": 6568,
      "ogurt": 6569,
      "Ġkucukse": 6570,
      "Ġgunesin": 6571,
      "Ġanlarim": 6572,
      "Ġannem": 6573,
      "Ġverme": 6574,
      "Ġvermedi": 6575,
      "Ġverildi": 6576,
      "Ġvermissin": 6577,
      "dana": 6578,
      "Ġyerim": 6579,
      "Ġyerini": 6580,
      "Ġyerlerin": 6581,
      "kab": 6582,
      "kalem": 6583,
      "kaÃ§": 6584,
      "lemi": 6585,
      "lemci": 6586,
      "lemedi": 6587,
      "lemez": 6588,
      "lemesine": 6589,
      "listigin": 6590,
      "Ġuzar": 6591,
      "Ġuzum": 6592,
      "Ġuzanir": 6593,
      "ollanda": 6594,
      "Ġond": 6595,
      "Ġone": 6596,
      "Ġonlar": 6597,
      "Ġonlardan": 6598,
      "Ġyargi": 6599,
      "Ġyaratici": 6600,
      "Ġicinden": 6601,
      "Ġicindedir": 6602,
      "kareler": 6603,
      "Ġkoms": 6604,
      "Ġkoza": 6605,
      "ral": 6606,
      "raci": 6607,
      "racaksin": 6608,
      "deni": 6609,
      "negatif": 6610,
      "Biraz": 6611,
      "Ġeli": 6612,
      "Ġelin": 6613,
      "Ġefsa": 6614,
      "Ġegzer": 6615,
      "baligi": 6616,
      "Ġender": 6617,
      "Ġcu": 6618,
      "Ġcesaret": 6619,
      "Ġcare": 6620,
      "Ġcimri": 6621,
      "Ġsayidir": 6622,
      "Ġsayilara": 6623,
      "Ġcam": 6624,
      "Ġcalar": 6625,
      "Ġcaba": 6626,
      "Ġcalmak": 6627,
      "ĠOyle": 6628,
      "ĠOlur": 6629,
      "ĠOgretmen": 6630,
      "ĠOsmanli": 6631,
      "Ġbaca": 6632,
      "Ġbabam": 6633,
      "Ġbakis": 6634,
      "Ġbabanin": 6635,
      "Ã§evrimiÃ§i": 6636,
      "ĠIsim": 6637,
      "ĠIspanya": 6638,
      "ÅŁlamak": 6639,
      "ÅŁmiÅŁ": 6640,
      "ÅŁekkÃ¼r": 6641,
      "ĠHiz": 6642,
      "ĠHassas": 6643,
      "ĠHititler": 6644,
      "ĠBiri": 6645,
      "ĠBirler": 6646,
      "ĠBirini": 6647,
      "ĠBirden": 6648,
      "ĠBirÃ§ok": 6649,
      "ĠYas": 6650,
      "ĠYag": 6651,
      "ĠYatmadan": 6652,
      "ĠYarisi": 6653,
      "Ġyazma": 6654,
      "Ġyazlar": 6655,
      "Ġyazlari": 6656,
      "Ġyazabilir": 6657,
      "Ġyazabi": 6658,
      "Ġyazmaya": 6659,
      "Ġyazisi": 6660,
      "ikligi": 6661,
      "Ġcikarinca": 6662,
      "Ġcikariyoruz": 6663,
      "bilin": 6664,
      "bitis": 6665,
      "ĠEme": 6666,
      "ĠEleman": 6667,
      "ĠEverest": 6668,
      "aldir": 6669,
      "almak": 6670,
      "alleri": 6671,
      "alyangoz": 6672,
      "Ġbaski": 6673,
      "Ġbaslayan": 6674,
      "Ġbasliyorum": 6675,
      "Ġbaslica": 6676,
      "Ġresim": 6677,
      "Ġruh": 6678,
      "Ġresmi": 6679,
      "Ġrast": 6680,
      "Ġreklamini": 6681,
      "ĠDe": 6682,
      "ĠDede": 6683,
      "ĠDerin": 6684,
      "ĠDegis": 6685,
      "ĠDilimleme": 6686,
      "ĠDegisim": 6687,
      "Ġbilmem": 6688,
      "ĠGB": 6689,
      "ĠGok": 6690,
      "iyeci": 6691,
      "leni": 6692,
      "lenme": 6693,
      "lenip": 6694,
      "lenmen": 6695,
      "gina": 6696,
      "ginde": 6697,
      "Ġistemiyorum": 6698,
      "Ġistemem": 6699,
      "Ġistiyorsan": 6700,
      "Ġistesem": 6701,
      "Ġistenen": 6702,
      "Ġdogup": 6703,
      "Ġdogmadim": 6704,
      "Ġarasi": 6705,
      "Ġardin": 6706,
      "Ġarzularim": 6707,
      "Ġsiv": 6708,
      "Ġsihir": 6709,
      "Ġsitesi": 6710,
      "Ġsicacik": 6711,
      "ĠMos": 6712,
      "ĠMisir": 6713,
      "ĠMezopotamya": 6714,
      "Ġbulabilir": 6715,
      "Ġbulalim": 6716,
      "meleri": 6717,
      "Ġolayi": 6718,
      "Ġolabilece": 6719,
      "Ġiyisi": 6720,
      "Ġsola": 6721,
      "Ġsote": 6722,
      "tebilir": 6723,
      "tesidir": 6724,
      "teleme": 6725,
      "tesiydi": 6726,
      "Ġayda": 6727,
      "Ġaylik": 6728,
      "Ġayraci": 6729,
      "Ġelman": 6730,
      "ĠelmasÄ±": 6731,
      "urken": 6732,
      "Ġgerisi": 6733,
      "Ġgorsel": 6734,
      "Ġgormeyi": 6735,
      "Ġgoremiyorum": 6736,
      "unudur": 6737,
      "Ġetmen": 6738,
      "Ġetmeyi": 6739,
      "Ġetmemek": 6740,
      "Ġetcil": 6741,
      "Ġeteklerinde": 6742,
      "Ġkarti": 6743,
      "Ġkarenin": 6744,
      "Ġkaradaki": 6745,
      "gular": 6746,
      "Ġsona": 6747,
      "Ġsonrak": 6748,
      "Ġsonbahar": 6749,
      "Ġsonrasi": 6750,
      "ĠzamanÄ±": 6751,
      "Ġzamanlarda": 6752,
      "resim": 6753,
      "Ġliralik": 6754,
      "Ġliralari": 6755,
      "Ġsorman": 6756,
      "Ġsormus": 6757,
      "Ġsormaktan": 6758,
      "Ġsordugun": 6759,
      "Ġsorumluluk": 6760,
      ")))": 6761,
      "linin": 6762,
      "Ġbilgilerden": 6763,
      "ĠbiÃ§": 6764,
      "Ġbiber": 6765,
      "Ġbitis": 6766,
      "Ġbilemem": 6767,
      "Ġbilerek": 6768,
      "Ġbilisim": 6769,
      "Ġsayma": 6770,
      "Ġsayede": 6771,
      "Ġseyle": 6772,
      "Ġseyden": 6773,
      "Ġseylerin": 6774,
      "Ġseylere": 6775,
      "Ġseylerden": 6776,
      "Ġyardimi": 6777,
      "anav": 6778,
      "anahtar": 6779,
      "Ġfonksiyonuyla": 6780,
      "Ġkitada": 6781,
      "Ġkitalarda": 6782,
      "ĠOnun": 6783,
      "ĠOnerin": 6784,
      "Ġoldum": 6785,
      "dikca": 6786,
      "diklerim": 6787,
      "Ġelmam": 6788,
      "Ġelmasi": 6789,
      "Ġzekasi": 6790,
      "Ġkusursuz": 6791,
      "Ġboya": 6792,
      "Ġkonust": 6793,
      "Ġ1750": 6794,
      "Ġkalmaktir": 6795,
      "ĠkaldÄ±": 6796,
      "Ġkalmadi": 6797,
      "Ġadimda": 6798,
      "Ġadimdir": 6799,
      "ĠTurkcede": 6800,
      "ĠTurkcedir": 6801,
      "Ġyapayim": 6802,
      "Ġdonen": 6803,
      "Ġdonar": 6804,
      "Ġdonmus": 6805,
      "Ġdondugu": 6806,
      "Ġdondiren": 6807,
      "Ġdongunun": 6808,
      "lamadan": 6809,
      "Ġcalismam": 6810,
      "Ġcalismaktir": 6811,
      "Ġcalismasi": 6812,
      "Ġolabilirsem": 6813,
      "Ġduymam": 6814,
      "Ġduydum": 6815,
      "Ġduyuyorum": 6816,
      "Ġduyarim": 6817,
      "Ġduydug": 6818,
      "Ġ1923": 6819,
      "liyorsun": 6820,
      "Ġolmasina": 6821,
      "Ġolmadigi": 6822,
      "kup": 6823,
      "caktir": 6824,
      "Ġ\\\".": 6825,
      "Ġeklersem": 6826,
      "Ġkitaplar": 6827,
      "Ġkitaplarin": 6828,
      "nisim": 6829,
      "Ġsudur": 6830,
      "Ġdegili": 6831,
      "Ġmuayene": 6832,
      "gimden": 6833,
      "Ġmodum": 6834,
      "Ġbilgisayari": 6835,
      "Ġbilgisayarinin": 6836,
      "evsehir": 6837,
      "Ġoran": 6838,
      "Ġorgu": 6839,
      "Ġorgan": 6840,
      "Ġbulus": 6841,
      "Ġbulust": 6842,
      "Ġbulgur": 6843,
      "Ġdenk": 6844,
      "Ġdeney": 6845,
      "Ġdeniyor": 6846,
      "Ġdeneye": 6847,
      "Ġdenemek": 6848,
      "Ġdenedik": 6849,
      "acera": 6850,
      "erhamet": 6851,
      "ĠÃ§oÄŁ": 6852,
      "Ġyanilabilirim": 6853,
      "Ġanlamca": 6854,
      "ĠPek": 6855,
      "ĠPara": 6856,
      "ĠPratik": 6857,
      "ĠParis": 6858,
      "ĠProgramlama": 6859,
      "Ġmaya": 6860,
      "Ġmatara": 6861,
      "Ġuyur": 6862,
      "Ġuydu": 6863,
      "Ġuyari": 6864,
      "Ġuyuma": 6865,
      "Ġuyuyamiyorum": 6866,
      "Ġaldi": 6867,
      "ĠaldÄ±": 6868,
      "Ġalmalisin": 6869,
      "Ġyuzolcumu": 6870,
      "Ġgecme": 6871,
      "Ġgeceden": 6872,
      "Ġgecince": 6873,
      "Ġgoc": 6874,
      "Ġgovde": 6875,
      "Ġgovdesi": 6876,
      "Ġisbir": 6877,
      "Ġismi": 6878,
      "luge": 6879,
      "Ġgibidir": 6880,
      "Ġkullaniyorum": 6881,
      "Ġkullandigi": 6882,
      "Ġkullanmaktir": 6883,
      "Ġkullanmistir": 6884,
      "Ġkullanilan": 6885,
      "ĠkullanÄ±labilir": 6886,
      "saminda": 6887,
      "items": 6888,
      "Ġsorulara": 6889,
      "Ġsonraya": 6890,
      "ĠNet": 6891,
      "ĠNeh": 6892,
      "ĠNevsehir": 6893,
      "Ġharic": 6894,
      "Ġceliski": 6895,
      "Ġadli": 6896,
      "Ġaddir": 6897,
      "Ġadinda": 6898,
      "Ġanlati": 6899,
      "Ġanlatan": 6900,
      "ĠSag": 6901,
      "ĠSade": 6902,
      "ĠSabit": 6903,
      "ĠSahra": 6904,
      "ĠSavasi": 6905,
      "Ġseven": 6906,
      "Ġseviyorum": 6907,
      "tarda": 6908,
      "Ġhafiz": 6909,
      "Ġhafiza": 6910,
      "Ġdusunen": 6911,
      "Ġdusunelim": 6912,
      "Ġdusunme": 6913,
      "Ġdusundur": 6914,
      "Ġdusunmen": 6915,
      "Ġdusunmenin": 6916,
      "Ġdusunuyorsun": 6917,
      "Ġsuruyor": 6918,
      "Ġsuredir": 6919,
      "Ġogrenilir": 6920,
      "Ġogrenmeye": 6921,
      "Ġogrenmesi": 6922,
      "Ġogrenmenin": 6923,
      "Ġogrenmiyorum": 6924,
      "Ġogrendiklerim": 6925,
      "tikca": 6926,
      "Ġyanil": 6927,
      "Ġyanilir": 6928,
      "Ġalirken": 6929,
      "Ġsaglan": 6930,
      "Ġsaglayarak": 6931,
      "Ġkuruy": 6932,
      "Ġkurabilir": 6933,
      "Ġkurtar": 6934,
      "Ġkurabilirsin": 6935,
      "Ġkurulu": 6936,
      "Ġkimi": 6937,
      "Ġkimin": 6938,
      "Ġsirasi": 6939,
      "Ġaksama": 6940,
      "Ġdegerlerin": 6941,
      "Ġdegerlendir": 6942,
      "Ġdegerlerine": 6943,
      "suna": 6944,
      "Ġdurdur": 6945,
      "Ġolandir": 6946,
      "Ġagdir": 6947,
      "Ġhangisini": 6948,
      "Ġucu": 6949,
      "Ġucmaz": 6950,
      "Ġucuncu": 6951,
      "Ġucama": 6952,
      "Ġikiser": 6953,
      "Ġ`:`": 6954,
      "kinca": 6955,
      "Ġurey": 6956,
      "Ġmetr": 6957,
      "Ġmetnin": 6958,
      "Ġmetredir": 6959,
      "Ġyagla": 6960,
      "Ġyagdi": 6961,
      "Ġyagmiyor": 6962,
      "Ġyagsaydi": 6963,
      "vettir": 6964,
      "Ġzorlu": 6965,
      "Ġzorlayici": 6966,
      "Ġdinlerim": 6967,
      "lerimden": 6968,
      "Ġhizda": 6969,
      "Ġduygularin": 6970,
      "Ġduygularini": 6971,
      "Ġkisiyi": 6972,
      "Ġkisilere": 6973,
      "Ġilkeler": 6974,
      "Ġilkbahar": 6975,
      "osuz": 6976,
      "sizligi": 6977,
      "Ġgerekce": 6978,
      "Ġgerekiyor": 6979,
      "Ġgerekmez": 6980,
      "Ġgerekmiyor": 6981,
      "Ġgerektirmez": 6982,
      "Ġgercekci": 6983,
      "Ġgercekte": 6984,
      "Ġarama": 6985,
      "Ġaraya": 6986,
      "Ġaramak": 6987,
      "Ġaralikli": 6988,
      "Ġaralarinda": 6989,
      "Ġsekerli": 6990,
      "ĠAydin": 6991,
      "Ġbaglanir": 6992,
      "Ġisitir": 6993,
      "Ġisiginin": 6994,
      "ortekiz": 6995,
      "Ġhavadan": 6996,
      "123": 6997,
      "Ġlistesi": 6998,
      "Ġlistesini": 6999,
      "Ġkutlanan": 7000,
      "Ġkonuma": 7001,
      "alÄ±ÅŁkan": 7002,
      "lasor": 7003,
      "litkan": 7004,
      "Ġcevreye": 7005,
      "dakat": 7006,
      "aziant": 7007,
      "Ä°yi": 7008,
      "Ä°smin": 7009,
      "Ä°nternetin": 7010,
      "Ä°htiyar": 7011,
      "Ä°ÅŁte": 7012,
      "Ġyillara": 7013,
      "cimek": 7014,
      "araciger": 7015,
      "arayici": 7016,
      "Ġyuklenme": 7017,
      "Ġagirsa": 7018,
      "Ġagirlikli": 7019,
      "Ġaciga": 7020,
      "Ġaynidir": 7021,
      "memiz": 7022,
      "Ġmutfa": 7023,
      "nekler": 7024,
      "Ġbenzer": 7025,
      "Ġbelge": 7026,
      "Ġbaslatir": 7027,
      "Ġbaslayarak": 7028,
      "ĠUst": 7029,
      "ĠUmut": 7030,
      "hire": 7031,
      "ĠFi": 7032,
      "ĠFelse": 7033,
      "ĠFiziksel": 7034,
      "ĠVicdan": 7035,
      "Ġlistem": 7036,
      "Ġbaka": 7037,
      "Ġbakir": 7038,
      "Ġbakar": 7039,
      "Ġbakmaktir": 7040,
      "Ġbakmani": 7041,
      "mayasin": 7042,
      "Ġkonusmaya": 7043,
      "Ġkonusuyorum": 7044,
      "Ġdegisen": 7045,
      "index": 7046,
      "ĠyararsÄ±n": 7047,
      "Ġparcalar": 7048,
      "Ġdille": 7049,
      "Ġsanatidir": 7050,
      "Ġortak": 7051,
      "Ġortami": 7052,
      "Ġyurekten": 7053,
      "ĠSende": 7054,
      "Ġgosterdigin": 7055,
      "Ġgostergesi": 7056,
      "minler": 7057,
      "Ġhafiflet": 7058,
      "Ġates": 7059,
      "Ġatman": 7060,
      "Ġatom": 7061,
      "Ġatilmak": 7062,
      "Ġkarsila": 7063,
      "Ġkarsilar": 7064,
      "Ġkarsiligini": 7065,
      "Ġkendiligin": 7066,
      "Ġbelirtmek": 7067,
      "Ġteme": 7068,
      "Ġtemsil": 7069,
      "ĠAkilli": 7070,
      "Ġkoruyan": 7071,
      "Ġduzene": 7072,
      "Ġkaybini": 7073,
      "Ġyanitlama": 7074,
      "Ġyanitlamaya": 7075,
      "ader": 7076,
      "adet": 7077,
      "bilsey": 7078,
      "elediye": 7079,
      "Ġsans": 7080,
      "Ġsanki": 7081,
      "Ġyeterince": 7082,
      "Ġhayir": 7083,
      "Ġisterse": 7084,
      "Ġrandom": 7085,
      "Ġkapi": 7086,
      "Ġkapsayan": 7087,
      "Ġkapsaminda": 7088,
      "Ġbaskasina": 7089,
      "Listede": 7090,
      "Listeyi": 7091,
      "Ġgelme": 7092,
      "Ġgeldin": 7093,
      "Ġgelmesidir": 7094,
      "Ġgelmesiyle": 7095,
      "Ġcikiyor": 7096,
      "Ġuretilir": 7097,
      "Ġuretmek": 7098,
      "Ġuretimi": 7099,
      "Ġuretmez": 7100,
      "Ġuretmesi": 7101,
      "Ġerir": 7102,
      "Ġermesidir": 7103,
      "Ġerdem": 7104,
      "Ġtanimi": 7105,
      "Ġyazarim": 7106,
      "Ġokyanusu": 7107,
      "Ġozet": 7108,
      "Ġozgu": 7109,
      "Ġenerjini": 7110,
      "Ġenerjisi": 7111,
      "Ġhissedilir": 7112,
      "Ġhissedersen": 7113,
      "Ġhissedersin": 7114,
      "Ġhissettigini": 7115,
      "Ġlitreyi": 7116,
      "Ġceken": 7117,
      "Ġcekici": 7118,
      "Ġcekmek": 7119,
      "Ġalanina": 7120,
      "Ġyaklastirir": 7121,
      "ĠIkisini": 7122,
      "Ġyagmuru": 7123,
      "Ġkirp": 7124,
      "Ġkiril": 7125,
      "Ġkirilir": 7126,
      "Ġkirikligi": 7127,
      "aktus": 7128,
      "Ġesne": 7129,
      "Ġesnem": 7130,
      "Ġdomat": 7131,
      "Ġhedefi": 7132,
      "Ġrengini": 7133,
      "Ġayirabilirsin": 7134,
      "Ġdinlendik": 7135,
      "Ġdinlenmen": 7136,
      "Ġgezegenlerden": 7137,
      "Ġhaftayi": 7138,
      "Ġhaftasonu": 7139,
      "ahta": 7140,
      "Ġdikkati": 7141,
      "Ġdikenlidir": 7142,
      "Ġgecebilir": 7143,
      "Ġgeceleri": 7144,
      "Ġgececek": 7145,
      "Ġkoyde": 7146,
      "Ġkoymayi": 7147,
      "Ġhayvanlarin": 7148,
      "ĠDunyada": 7149,
      "Ġsinek": 7150,
      "Ġsonuclarini": 7151,
      "Ġsogan": 7152,
      "Ġsoguyun": 7153,
      "Ġsogundur": 7154,
      "Ġgozet": 7155,
      "Ġgozlerim": 7156,
      "Ġgozlerini": 7157,
      "Ġgozunun": 7158,
      "Ġgozyas": 7159,
      "Ġcevirelim": 7160,
      "Ġcevirme": 7161,
      "Ġsirali": 7162,
      "Ġsiralar": 7163,
      "Ġsiralarim": 7164,
      "Ġsirasina": 7165,
      "Ġsiralamayi": 7166,
      "dumuzun": 7167,
      "leks": 7168,
      "lektir": 7169,
      "letken": 7170,
      "Ġdevre": 7171,
      "Ġdevlet": 7172,
      "Ġdevresi": 7173,
      "Ġdevirler": 7174,
      "Ġzararli": 7175,
      "Ġazaldigi": 7176,
      "Ġazaltabilir": 7177,
      "Ġazaltabilirim": 7178,
      "Ġsoyledigi": 7179,
      "Ġmantigi": 7180,
      "Ġaclik": 7181,
      "Ġacinin": 7182,
      "Ġacmadi": 7183,
      "Ġnereye": 7184,
      "Ġ5050": 7185,
      "Ġanlamlisidir": 7186,
      "Ġrenkten": 7187,
      "Ġmetinler": 7188,
      "Ġsatirlik": 7189,
      "Ġsatirinin": 7190,
      "Ġgidiyorsun": 7191,
      "2026": 7192,
      "Ġunlu": 7193,
      "hazinda": 7194,
      "Ġturu": 7195,
      "Ġturizmiyle": 7196,
      "Ġtutup": 7197,
      "Ġkislar": 7198,
      "Ġkislari": 7199,
      "Ġharekete": 7200,
      "Ġhareketi": 7201,
      "Ġhareketli": 7202,
      "Ġorneklendir": 7203,
      "ĠRusya": 7204,
      "ĠRuzgar": 7205,
      "ĠRahat": 7206,
      "Ġyasta": 7207,
      "Ġyaslari": 7208,
      "Ġyonel": 7209,
      "Ġyonunde": 7210,
      "Ġtahilli": 7211,
      "Ġyuksektir": 7212,
      "Ġyukseklik": 7213,
      "Ġspora": 7214,
      "Ġhepsi": 7215,
      "Ġcihazlari": 7216,
      "Ġogrenciyi": 7217,
      "Ġguvenmeli": 7218,
      "Ġmesgul": 7219,
      "ĠMaraton": 7220,
      "kanlik": 7221,
      "raklar": 7222,
      "rakam": 7223,
      "Ġrapt": 7224,
      "Ġragmen": 7225,
      "ĠsÄ±k": 7226,
      "Ġgucun": 7227,
      "Ġguctur": 7228,
      "Ġgucum": 7229,
      "Ġcozme": 7230,
      "Ġcozmemizi": 7231,
      "ĠKarbon": 7232,
      "ĠKarincalar": 7233,
      "Ġonerilir": 7234,
      "Ġonerme": 7235,
      "Ġaksami": 7236,
      "try": 7237,
      "Ġtersini": 7238,
      "leyelim": 7239,
      "leyerek": 7240,
      "Ġyasamam": 7241,
      "Ġyasamayi": 7242,
      "ĠBaban": 7243,
      "ĠBabanin": 7244,
      "Ġhatalar": 7245,
      "Ġhatalari": 7246,
      "Ġhatanin": 7247,
      "Ġcocugu": 7248,
      "Ġboyn": 7249,
      "Ġdenizle": 7250,
      "Ġdenizlere": 7251,
      "Ġgecirir": 7252,
      "Ġgecirmek": 7253,
      "Ġgecirip": 7254,
      "Ġgecirirsin": 7255,
      "Ġgecirmissin": 7256,
      "Ġolusturup": 7257,
      "Ġolusturuyorum": 7258,
      "Ġbolgedir": 7259,
      "Ġbolgeden": 7260,
      "Ġbolgelere": 7261,
      "Ġbolgeye": 7262,
      "Ġbolgelerini": 7263,
      "Ġbolgelerde": 7264,
      "Ġprogrami": 7265,
      "Ġprogramdir": 7266,
      "Ġtaniman": 7267,
      "Ġtanimak": 7268,
      "Ġtanimlamaz": 7269,
      "Ġtanimlayip": 7270,
      "ĠSubat": 7271,
      "Ġcanim": 7272,
      "ĠEkmek": 7273,
      "Satir": 7274,
      "Ġilerleme": 7275,
      "Ġbirbirinden": 7276,
      "Ġnazikce": 7277,
      "Ġedebilirsin": 7278,
      "Ġplanla": 7279,
      "Ġplanin": 7280,
      "Ġplanini": 7281,
      "Ġplanlamak": 7282,
      "Ġpaylasir": 7283,
      "Ġsistemim": 7284,
      "Ġsistemidir": 7285,
      "Ġyuzdeye": 7286,
      "Ġhazirlamak": 7287,
      "Ġhazirlanmak": 7288,
      "Ġdavranmaya": 7289,
      "Ġdavraniyorsun": 7290,
      "Ġkotudur": 7291,
      "ketbol": 7292,
      "Ġcumlelerinle": 7293,
      "Ġparayi": 7294,
      "ĠSonradan": 7295,
      "Ġsesleri": 7296,
      "Ġayaklidir": 7297,
      "Ġsakince": 7298,
      "Ġsakinles": 7299,
      "Ġfaydalidir": 7300,
      "ĠIste": 7301,
      "Ġgitmis": 7302,
      "Ġgitmedik": 7303,
      "Ġgerekirse": 7304,
      "Ġkutudan": 7305,
      "Ġenerjiyi": 7306,
      "ĠkÃ¼Ã§Ã¼m": 7307,
      "Ġyildizlari": 7308,
      "Ġyildizlarin": 7309,
      "atika": 7310,
      "ationError": 7311,
      "Ġtutan": 7312,
      "Ġvermekten": 7313,
      "Ġicindeyse": 7314,
      "Ġbaslangictir": 7315,
      "ĠBaskent": 7316,
      "ĠBaslangicta": 7317,
      "Ġdigerleri": 7318,
      "Ġdigerlerinin": 7319,
      "Ġutan": 7320,
      "Ġulasa": 7321,
      "Ġufak": 7322,
      "Ġbugunku": 7323,
      "Ġbenimle": 7324,
      "Ġokudu": 7325,
      "Ġgelistiren": 7326,
      "Ġgelistirici": 7327,
      "Ġgelistirilen": 7328,
      "Ġgelistirildin": 7329,
      "Ġsozlerin": 7330,
      "Ġsozcuk": 7331,
      "Ġyuruyuse": 7332,
      "Ġgunessiz": 7333,
      "isafir": 7334,
      "renebilir": 7335,
      "renkler": 7336,
      "Ġkazi": 7337,
      "Ġtavir": 7338,
      "Ġyapmasi": 7339,
      "Ġyapmadi": 7340,
      "Ġbitirilir": 7341,
      "Ġbitiremiyorum": 7342,
      "Ġdegerlisi": 7343,
      "Ġrahatsiz": 7344,
      "Ġrahatlat": 7345,
      "Ġbiriken": 7346,
      "Ġkoseye": 7347,
      "Ġkosucu": 7348,
      "Ġbolersek": 7349,
      "Ġislemleri": 7350,
      "Ġasla": 7351,
      "sijen": 7352,
      "Ġgayret": 7353,
      "Ġbilinc": 7354,
      "Ġbilincin": 7355,
      "meyve": 7356,
      "Ġselamdir": 7357,
      "itaminler": 7358,
      "ntivirus": 7359,
      "Ġbekle": 7360,
      "Ġmemnun": 7361,
      "Ġmemelidir": 7362,
      "Ġmemuru": 7363,
      "Ġkatli": 7364,
      "Ġkatlarini": 7365,
      "Ġtartistik": 7366,
      "Ġtartisilan": 7367,
      "Ġhatira": 7368,
      "Ġhatirliyor": 7369,
      "Ġhatirlamaya": 7370,
      "Ġfile": 7371,
      "Ġfibonacci": 7372,
      "Ġetkilen": 7373,
      "Ġetkilemek": 7374,
      "Ġdevami": 7375,
      "Ġunutmaktan": 7376,
      "Ġanahtardan": 7377,
      "Ġodaklanmani": 7378,
      "ĠkÄ±saca": 7379,
      "Ġatarak": 7380,
      "Ġayrica": 7381,
      "Ġcalisirken": 7382,
      "Ġcalisirsam": 7383,
      "barada": 7384,
      "Ġdagitir": 7385,
      "ĠAraba": 7386,
      "ĠIlkbaharda": 7387,
      "Ġgerisini": 7388,
      "Ġdegiskenini": 7389,
      "Negatif": 7390,
      "Ġaltta": 7391,
      "Ġbedenin": 7392,
      "Ġkizin": 7393,
      "Ġdilime": 7394,
      "Ġdilimi": 7395,
      "Ġmevsiminde": 7396,
      "Ġvucud": 7397,
      "Ġvucuda": 7398,
      "Ġvucudumuzun": 7399,
      "Ġgetirsin": 7400,
      "Ġgetirmektir": 7401,
      "Ġyarasalar": 7402,
      "Ġsebebi": 7403,
      "bagalar": 7404,
      "Ġgorevin": 7405,
      "Ġkalkmayi": 7406,
      "Ġcevaplari": 7407,
      "Ġsurec": 7408,
      "Ġaliskanliga": 7409,
      "ĠKutuk": 7410,
      "ĠKutbu": 7411,
      "Ġegittigi": 7412,
      "Dunyada": 7413,
      "dortgenin": 7414,
      "kelimeler": 7415,
      "seme": 7416,
      "vallah": 7417,
      "Ġdokuz": 7418,
      "Ġyememek": 7419,
      "Ġsergi": 7420,
      "Ġsermek": 7421,
      "Ġyasariz": 7422,
      "Ġdeyimini": 7423,
      "Ġuzaktaki": 7424,
      "Ġsecimlerini": 7425,
      "Ġsecimlerimiz": 7426,
      "ĠInerken": 7427,
      "Ġbilmiyor": 7428,
      "Ġbilmeni": 7429,
      "Ġbilmeden": 7430,
      "Ġbilmedik": 7431,
      "Ġgorunen": 7432,
      "Ġgorunce": 7433,
      "Ġgorunse": 7434,
      "Ġsevinmek": 7435,
      "Ġdusuncelerini": 7436,
      "Ġdurumlar": 7437,
      "Ġdurumunu": 7438,
      "Ġhaberlere": 7439,
      "yonlarca": 7440,
      "Ġbesinler": 7441,
      "Ġihtiyaci": 7442,
      "Ġminicik": 7443,
      "ĠyaÅŁÄ±nda": 7444,
      "Ġyasamin": 7445,
      "Ġyasaman": 7446,
      "Ġyasamis": 7447,
      "Ġyasamistir": 7448,
      "Ġzihnin": 7449,
      "Ġgecici": 7450,
      "Ġyapacak": 7451,
      "Ġyapacagim": 7452,
      "Ġevinde": 7453,
      "ĠYerler": 7454,
      "ĠYazinin": 7455,
      "Ġkenarlari": 7456,
      "Ġmantikli": 7457,
      "Ġkazandi": 7458,
      "Ġkazanmak": 7459,
      "Ġetrafindaki": 7460,
      "Akdeniz": 7461,
      "Akilli": 7462,
      "oktali": 7463,
      "Kare": 7464,
      "Karenin": 7465,
      "Karbon": 7466,
      "Karincalar": 7467,
      "odoro": 7468,
      "Ġustte": 7469,
      "Ġoturt": 7470,
      "Ġoturacak": 7471,
      "Ġyatman": 7472,
      "Ġyatmaya": 7473,
      "Ġsaklar": 7474,
      "Ġsaklayan": 7475,
      "Ġekrandan": 7476,
      "Ġoneriler": 7477,
      "Ġbuharinin": 7478,
      "Ġbuharlastirir": 7479,
      "Ġbuharlasip": 7480,
      "Ġolduguna": 7481,
      "Ġoldugunun": 7482,
      "Ġduygusu": 7483,
      "Ġogretir": 7484,
      "Ġuykuyu": 7485,
      "Ġuykusuna": 7486,
      "Ġurunusun": 7487,
      "Ġprojesi": 7488,
      "Ġgeldiginde": 7489,
      "Ġinanclar": 7490,
      "Ġolcum": 7491,
      "Ġolcerek": 7492,
      "Ġolculu": 7493,
      "ĠAglamak": 7494,
      "Ġkarakterin": 7495,
      "Ġsirkete": 7496,
      "Ġmumkunse": 7497,
      "Ġmumkundur": 7498,
      "Ġhob": 7499,
      "Ġhosuna": 7500,
      "emezsin": 7501,
      "Ġgeliyorsa": 7502,
      "Ġhaliyle": 7503,
      "Ã¼zÃ¼n": 7504,
      "Ġgunduzu": 7505,
      "Ġartirmak": 7506,
      "Ġiyilikler": 7507,
      "Ġkararlar": 7508,
      "Ġyanindayim": 7509,
      "Ġbaslayabilirsin": 7510,
      "Ġdostum": 7511,
      "Ġyogunlugu": 7512,
      "Ġdestekler": 7513,
      "Ġihtiyacin": 7514,
      "Ġihtiyacini": 7515,
      "ĠSevgi": 7516,
      "Ġistedigini": 7517,
      "Algoritma": 7518,
      "buklari": 7519,
      "omodoro": 7520,
      "Ġkestir": 7521,
      "Ġkesmek": 7522,
      "Ġkesersem": 7523,
      "Ġkesfet": 7524,
      "Ġkiyafet": 7525,
      "Ġmoral": 7526,
      "Ġmeyv": 7527,
      "Ġmeyveler": 7528,
      "Ġmakin": 7529,
      "Ġotomobil": 7530,
      "Ġayilari": 7531,
      "Ġayiklama": 7532,
      "Ġgulller": 7533,
      "Ġtonlar": 7534,
      "Ġtuzlu": 7535,
      "Ġhassas": 7536,
      "Ġhaslanmis": 7537,
      "cevrim": 7538,
      "Ġyarida": 7539,
      "Ġezmesi": 7540,
      "Ġezilmis": 7541,
      "Ġgorusler": 7542,
      "Ġgorusum": 7543,
      "Ġgorusmek": 7544,
      "Ġetmesidir": 7545,
      "Ġetmesiyle": 7546,
      "Ġdonemler": 7547,
      "Ġbulundur": 7548,
      "Ġbulundugu": 7549,
      "Ġoldugumuzu": 7550,
      "Ġproblemleri": 7551,
      "ĠUzerine": 7552,
      "Ġcanlilara": 7553,
      "Ġbitkilerin": 7554,
      "ĠBaskalarina": 7555,
      "Ġgenisler": 7556,
      "okyuzu": 7557,
      "ĠbÃ¼yÃ¼ÄŁÃ¼nÃ¼": 7558,
      "Ġdunyayi": 7559,
      "Ġdunyadaki": 7560,
      "Ġhayat": 7561,
      "Ġkoyarim": 7562,
      "ĠMerdiv": 7563,
      "Ġtemizlik": 7564,
      "Ġsoyleyebilir": 7565,
      "Ġsoyleyeyim": 7566,
      "posta": 7567,
      "Ġkuzeyinde": 7568,
      "Ġisinmaya": 7569,
      "Ġicemiyorum": 7570,
      "Ġoyun": 7571,
      "Ġsayarsam": 7572,
      "Ġtoplumda": 7573,
      "Ġhayaller": 7574,
      "Ġyazilimim": 7575,
      "Ġsevgiyle": 7576,
      "Ġcevreleyen": 7577,
      "Ġcevresindeki": 7578,
      "Ġkarsilastirmak": 7579,
      "ĠAksamlari": 7580,
      "Ġyonetiliyor": 7581,
      "Ġyumurtanin": 7582,
      "Sevgi": 7583,
      "Sevdigin": 7584,
      "ĠCalistigin": 7585,
      "ĠCihazinda": 7586,
      "diysa": 7587,
      "ilacaklar": 7588,
      "lasilabilir": 7589,
      "Ġkopektir": 7590,
      "Ġdiyeyim": 7591,
      "Ġiliskiler": 7592,
      "Ġmedeniyetler": 7593,
      "Ġstringin": 7594,
      "Ġogune": 7595,
      "Ġogunde": 7596,
      "Ġogunleri": 7597,
      "Ġdayanma": 7598,
      "Ġdayanarak": 7599,
      "Ġkaliplari": 7600,
      "Ġgokyuzu": 7601,
      "Ġgokyuzunu": 7602,
      "Ġnotu": 7603,
      "stiginda": 7604,
      "ĠAffetmek": 7605,
      "ĠkiÅŁinin": 7606,
      "Ġfircalamak": 7607,
      "ĠKaÃ§": 7608,
      "ĠKahire": 7609,
      "ĠKapadokya": 7610,
      "ĠIsleri": 7611,
      "Ġsikinti": 7612,
      "Ġsikintisi": 7613,
      "Ġgoturmedi": 7614,
      "Ġgoturecegim": 7615,
      "Ġagaclar": 7616,
      "Ġmutluluktan": 7617,
      "Ġyeterlidir": 7618,
      "Ġyetersiz": 7619,
      "Ġhicbirini": 7620,
      "Ġyontemdir": 7621,
      "()))": 7622,
      "AydÄ±n": 7623,
      "Kimsin": 7624,
      "Ġdosyalari": 7625,
      "ĠMutlu": 7626,
      "harfler": 7627,
      "Aslan": 7628,
      "Mutluluk": 7629,
      "mpati": 7630,
      "mparator": 7631,
      "notu": 7632,
      "Ġbizden": 7633,
      "Ġbugunu": 7634,
      "Ġkucugu": 7635,
      "Ġkulturel": 7636,
      "Ġdoluyor": 7637,
      "Ġatiliyor": 7638,
      "dioksit": 7639,
      "ĠAltin": 7640,
      "ĠAlgoritma": 7641,
      "ĠAtlar": 7642,
      "Ġtoparlar": 7643,
      "Ġtoparlamaya": 7644,
      "Ġhavuc": 7645,
      "Ġhavlar": 7646,
      "Ġhavayla": 7647,
      "Ġhavuza": 7648,
      "Ġarkasinda": 7649,
      "Ġkarbonhidrat": 7650,
      "Ġdeneyimim": 7651,
      "Ġuyanik": 7652,
      "ĠSayilar": 7653,
      "Ġilkeleri": 7654,
      "Ġilkelerin": 7655,
      "Ġsoyluyorsa": 7656,
      "Ġsoyluyorsun": 7657,
      "Ġozgurlugun": 7658,
      "Ġyasayabilir": 7659,
      "Ġtatildir": 7660,
      "Ġacikcasi": 7661,
      "Ġsebzeleri": 7662,
      "Ġsimdilik": 7663,
      "Ġtehlike": 7664,
      "Ġtehlikeli": 7665,
      "Genellikle": 7666,
      "Tesekkurler": 7667,
      "Ġ{'": 7668,
      "Ġberber": 7669,
      "ĠTesekkurler": 7670,
      "Ġayiririz": 7671,
      "BaÅŁlamak": 7672,
      "drojen": 7673,
      "ebilmek": 7674,
      "Ġumarim": 7675,
      "Ġemin": 7676,
      "Ġkumesinin": 7677,
      "Ġkumbarada": 7678,
      "takta": 7679,
      "Ġdizisi": 7680,
      "Ġdizisinde": 7681,
      "Ġyili": 7682,
      "Ġyilinda": 7683,
      "Ġyoludur": 7684,
      "Ġvicdanimiz": 7685,
      "Ġsutle": 7686,
      "Ġodul": 7687,
      "Ġodedim": 7688,
      "Ġodasi": 7689,
      "Ġacabilir": 7690,
      "Ġacaba": 7691,
      "Ġgururlan": 7692,
      "Ġfiltre": 7693,
      "ĠKolay": 7694,
      "Ġkomutlari": 7695,
      "Ġkomutlara": 7696,
      "bilecegini": 7697,
      "Ġrutini": 7698,
      "lenenleri": 7699,
      "Ġartiktir": 7700,
      "Ġolaylarin": 7701,
      "Ġgerginim": 7702,
      "Ġgerginligi": 7703,
      "Ġbiliyorsun": 7704,
      "Ġboceklerinin": 7705,
      "Ġdonustur": 7706,
      "Ġuyumam": 7707,
      "Ġuyumadan": 7708,
      "Ġbaglanti": 7709,
      "Ġortamdan": 7710,
      "Ġyorulmam": 7711,
      "Ġyoruluyor": 7712,
      "Ġdolasimi": 7713,
      "Ġpaylasmak": 7714,
      "Ġpaylasman": 7715,
      "ĠOkyanusya": 7716,
      "Ġhastalara": 7717,
      "Ġdamlaciklari": 7718,
      "Ġvakitlerde": 7719,
      "Ġkullanicilara": 7720,
      "KaÃ§": 7721,
      "Kapadokya": 7722,
      "Mavi": 7723,
      "Yazinin": 7724,
      "dugunu": 7725,
      "garlik": 7726,
      "hane": 7727,
      "Ãĩok": 7728,
      "ÃĩalÄ±ÅŁkan": 7729,
      "Ġsinif": 7730,
      "Ġileride": 7731,
      "Ġvucuttan": 7732,
      "Ġvucuttaki": 7733,
      "Ġsolunum": 7734,
      "Ġsolunumu": 7735,
      "Ġsolungac": 7736,
      "Ġgucudur": 7737,
      "Ġmiktarda": 7738,
      "Ġtuket": 7739,
      "Ġtitresim": 7740,
      "Ġtepe": 7741,
      "Ġtepkim": 7742,
      "Ġtrende": 7743,
      "ĠBulutlar": 7744,
      "celleme": 7745,
      "Ġtasarlar": 7746,
      "aklava": 7747,
      "ĠKizil": 7748,
      "ĠKizilirmak": 7749,
      "ĠKalani": 7750,
      "olojidir": 7751,
      "iskinler": 7752,
      "Ġkovada": 7753,
      "Ġendiseliyim": 7754,
      "Ġbasarmak": 7755,
      "Ġbalinalar": 7756,
      "ĠHaziran": 7757,
      "Ġartiyor": 7758,
      "Ġarttirarak": 7759,
      "Ġartarak": 7760,
      "Ġolasiligi": 7761,
      "Ġekleyince": 7762,
      "Ġparametresiyle": 7763,
      "Ġucgende": 7764,
      "Ġcalisacak": 7765,
      "Ġcalisabilecek": 7766,
      "Ġbaglanabiliyor": 7767,
      "abilecegi": 7768,
      "Ġsoylemeye": 7769,
      "Ġsoylemez": 7770,
      "Ġparcalaridir": 7771,
      "Ġhafifletebilir": 7772,
      "Ġtembellik": 7773,
      "Ġkapatmak": 7774,
      "Ġmodelsin": 7775,
      "Ġdavranisin": 7776,
      "Ġbeslenmek": 7777,
      "Ġbesleniyor": 7778,
      "Ġsecenekler": 7779,
      "Ġsecenekleri": 7780,
      "Ġmemeliler": 7781,
      "Ġkilogramdir": 7782,
      "Ġyapabilmektir": 7783,
      "Ġkarbondioksit": 7784,
      "Ġyuvarlaktir": 7785,
      "Ġgirintili": 7786,
      "Ekran": 7787,
      "Kose": 7788,
      "kova": 7789,
      "ĠLirasi": 7790,
      "ĠLondra": 7791,
      "ciftler": 7792,
      "ĠKisiye": 7793,
      "Bool": 7794,
      "BoÅŁ": 7795,
      "Bulutlar": 7796,
      "Orta": 7797,
      "Sifir": 7798,
      "medin": 7799,
      "mediyse": 7800,
      "ĠWashing": 7801,
      "Ġulk": 7802,
      "Ġburnumuz": 7803,
      "Ġkasli": 7804,
      "Ġkulaklar": 7805,
      "ciyorum": 7806,
      "Ġoglu": 7807,
      "ĠSureklilik": 7808,
      "Ġdalga": 7809,
      "Ġdayanacak": 7810,
      "Ġgruplara": 7811,
      "Ġyataktan": 7812,
      "Ġbuyumedim": 7813,
      "Ġsarki": 7814,
      "Ġolmami": 7815,
      "emsire": 7816,
      "Ġgelecegim": 7817,
      "Ġtoplayalim": 7818,
      "Ġtoplayacagiz": 7819,
      "Ġcisimleri": 7820,
      "Ġcisimlerin": 7821,
      "amukkale": 7822,
      "Ġegik": 7823,
      "Ġegiti": 7824,
      "Ġcumartesi": 7825,
      "Ġbasinc": 7826,
      "ĠGuvenin": 7827,
      "ĠarasÄ±nda": 7828,
      "Ġkonumuna": 7829,
      "Ġduyulan": 7830,
      "Ġgecmist": 7831,
      "Ġhissedebiliriz": 7832,
      "Ġsurdurmesi": 7833,
      "Ġsurdururuz": 7834,
      "Ġdinlene": 7835,
      "larimizin": 7836,
      "Ġyukselip": 7837,
      "Ġerteleme": 7838,
      "Ġhissederiz": 7839,
      "Ġcekinmeden": 7840,
      "Ġcanlandirir": 7841,
      "Ġhatirlamam": 7842,
      "Aksamlari": 7843,
      "Ġotobuste": 7844,
      "Ġoynar": 7845,
      "Ġoynanir": 7846,
      "Ġkanitlamaz": 7847,
      "Ġatistirmalik": 7848,
      "Ġtokalas": 7849,
      "Ġtokalasma": 7850,
      "ĠaÃ§Ä±klar": 7851,
      "Ġdanismakta": 7852,
      "Ġatmosferde": 7853,
      "Ġatmosferdeki": 7854,
      "Ġyolculuklar": 7855,
      "Dairenin": 7856,
      "Elma": 7857,
      "Elbette": 7858,
      "Okyanus": 7859,
      "ĠBelki": 7860,
      "ĠOtoyol": 7861,
      "ĠDongu": 7862,
      "Ġcarparsak": 7863,
      "ĠRoma": 7864,
      "ĠAralarindaki": 7865,
      ":`)": 7866,
      "Atlar": 7867,
      "fein": 7868,
      "encerede": 7869,
      "Ġdisk": 7870,
      "Ġstresliyim": 7871,
      "Ġopenai": 7872,
      "ĠSifirdan": 7873,
      "Ġdagilir": 7874,
      "Ġyakayi": 7875,
      "Ġtelasini": 7876,
      "ĠsamanÄ±": 7877,
      "ĠBuyur": 7878,
      "Ġolmustur": 7879,
      "Ġgelismis": 7880,
      "Ġyapraklar": 7881,
      "Ġyapabilecegini": 7882,
      "Ġpikniye": 7883,
      "Ġpikinige": 7884,
      "Ġpahali": 7885,
      "Ġnehirler": 7886,
      "aticilik": 7887,
      "Ġverimli": 7888,
      "Ġverdiginde": 7889,
      "Ġuzmanla": 7890,
      "ismanlik": 7891,
      "Ġbahcede": 7892,
      "Ġbaslamaliyim": 7893,
      "Ġbaslamadigini": 7894,
      "Ġsigdir": 7895,
      "ĠMadrid": 7896,
      "Ġayarlarsin": 7897,
      "Ġamaclar": 7898,
      "Ġbosalt": 7899,
      "Ġuydurmak": 7900,
      "Ġanlayisli": 7901,
      "Ġkurala": 7902,
      "Ġyukselir": 7903,
      "Ġkolaylastirabilir": 7904,
      "Ġyurutur": 7905,
      "Ġkorumak": 7906,
      "elebekler": 7907,
      "Ġhissettiren": 7908,
      "ĠHayatin": 7909,
      "Ġgozlemle": 7910,
      "Ġyonlendirmek": 7911,
      "Ġsakinlestirici": 7912,
      "Ġkahveni": 7913,
      "Ġkahveyi": 7914,
      "Ġsozlukteki": 7915,
      "Ġelektrigin": 7916,
      "Ġyemegini": 7917,
      "Ġkiyasla": 7918,
      "Ġtakvime": 7919,
      "Ġkanatlariyla": 7920,
      "Ġicecekleri": 7921,
      "Ġolabildigime": 7922,
      "Ġkurallaridir": 7923,
      "Ġduzeltelim": 7924,
      "Ġharcamalari": 7925,
      "ĠHerkese": 7926,
      "Degiskene": 7927,
      "Degiskenleri": 7928,
      "Ġkristal": 7929,
      "ĠÃ¶ÄŁÃ¼tler": 7930,
      "ĠÃ¶ÄŁrenebilir": 7931,
      "Ġrehberdir": 7932,
      "Istersen": 7933,
      "String": 7934,
      "ĠÃ¼st": 7935,
      "ĠTebrikler": 7936,
      "ĠIkizler": 7937,
      "ĠBirincisi": 7938,
      "ĠCogunu": 7939,
      "Ġhesaplayalim": 7940,
      "ĠOkulda": 7941,
      "Ġhayatimizi": 7942,
      "Korkak": 7943,
      "Temiz": 7944,
      "brit": 7945,
      "ufus": 7946,
      "Ġrobot": 7947,
      "Ġbogaz": 7948,
      "Ġbasik": 7949,
      "Ġbedene": 7950,
      "santre": 7951,
      "Ġdukkan": 7952,
      "Ġihtimali": 7953,
      "Ġmilyonlarca": 7954,
      "Ġmurlar": 7955,
      "Ġsuyunu": 7956,
      "Ġodevi": 7957,
      "Ġomurga": 7958,
      "Ġalevi": 7959,
      "Ġdagilmis": 7960,
      "Ġkamufla": 7961,
      "ĠgÃ¶rÃ¼n": 7962,
      "Ġtesti": 7963,
      "Ġhidrojen": 7964,
      "Ġtasiyan": 7965,
      "Ġziplayarak": 7966,
      "Ġgevset": 7967,
      "Ġyaptiklarimizin": 7968,
      "Ġcorba": 7969,
      "ĠTelefona": 7970,
      "ĠKahvalti": 7971,
      "Ġeklendi": 7972,
      "Ġuzuntudur": 7973,
      "ĠIcindeki": 7974,
      "ĠHicbiri": 7975,
      "Ġincitici": 7976,
      "Ġrefleks": 7977,
      "Ġisteklerim": 7978,
      "ĠaynÄ±": 7979,
      "Ġkalbim": 7980,
      "Ġmolekulleri": 7981,
      "Ġteknolojidir": 7982,
      "ĠPikniye": 7983,
      "Ġmasada": 7984,
      "Ġmatarayla": 7985,
      "Ġalfabesinde": 7986,
      "Ġyansitir": 7987,
      "Ġyansittigi": 7988,
      "Ġ(`:`)": 7989,
      "Ġakcigerleri": 7990,
      "Ġmutlulugun": 7991,
      "Ġbakimindan": 7992,
      "Ġyurumek": 7993,
      "Ġkarsiliksiz": 7994,
      "Ġguclendirir": 7995,
      "Ġgitmeyecek": 7996,
      "Ġulasirsin": 7997,
      "Ġmerdivenin": 7998,
      "Ġdusuncelerimizden": 7999
    },
    "merges": [
      [
        "Ġ",
        "\""
      ],
      [
        "n",
        "t"
      ],
      [
        "\"",
        ":"
      ],
      [
        "l",
        "e"
      ],
      [
        "i",
        "r"
      ],
      [
        "{",
        "\""
      ],
      [
        "č",
        "Ċ"
      ],
      [
        "s",
        "i"
      ],
      [
        "e",
        "r"
      ],
      [
        "l",
        "a"
      ],
      [
        "Ġ",
        "b"
      ],
      [
        "c",
        "o"
      ],
      [
        "e",
        "s"
      ],
      [
        "r",
        "o"
      ],
      [
        "e",
        "nt"
      ],
      [
        "\"",
        ","
      ],
      [
        "co",
        "nt"
      ],
      [
        "\"",
        "}"
      ],
      [
        "ro",
        "le"
      ],
      [
        "cont",
        "ent"
      ],
      [
        "u",
        "s"
      ],
      [
        "s",
        "a"
      ],
      [
        "l",
        "i"
      ],
      [
        "Ġ",
        "k"
      ],
      [
        "e",
        "n"
      ],
      [
        "t",
        "a"
      ],
      [
        "i",
        "n"
      ],
      [
        "Ġ",
        "d"
      ],
      [
        "u",
        "n"
      ],
      [
        "a",
        "r"
      ],
      [
        "Ġ",
        "y"
      ],
      [
        "i",
        "l"
      ],
      [
        "a",
        "s"
      ],
      [
        "u",
        "r"
      ],
      [
        "o",
        "n"
      ],
      [
        "Ġ",
        "1"
      ],
      [
        "a",
        "n"
      ],
      [
        "s",
        "ta"
      ],
      [
        "Ġ",
        "{\""
      ],
      [
        "\"}",
        ","
      ],
      [
        "si",
        "sta"
      ],
      [
        "us",
        "er"
      ],
      [
        "as",
        "sista"
      ],
      [
        "assista",
        "nt"
      ],
      [
        "Ġ",
        "["
      ],
      [
        "sa",
        "g"
      ],
      [
        "m",
        "es"
      ],
      [
        "]",
        "}"
      ],
      [
        "\"}",
        "]}"
      ],
      [
        "Ġ[",
        "{\""
      ],
      [
        "sag",
        "es"
      ],
      [
        "mes",
        "sages"
      ],
      [
        "Ġ",
        "i"
      ],
      [
        "Ġ",
        "m"
      ],
      [
        "i",
        "m"
      ],
      [
        "e",
        "k"
      ],
      [
        "u",
        "c"
      ],
      [
        "g",
        "e"
      ],
      [
        "c",
        "i"
      ],
      [
        "u",
        "k"
      ],
      [
        ".",
        "\"}]}"
      ],
      [
        "Ġ",
        "v"
      ],
      [
        "?",
        "\"},"
      ],
      [
        "m",
        "a"
      ],
      [
        "Ġ",
        "s"
      ],
      [
        "li",
        "m"
      ],
      [
        "Ġ",
        "o"
      ],
      [
        "u",
        "y"
      ],
      [
        "h",
        "a"
      ],
      [
        "la",
        "n"
      ],
      [
        "la",
        "r"
      ],
      [
        "Ġ",
        "S"
      ],
      [
        "Ġb",
        "ir"
      ],
      [
        "u",
        "l"
      ],
      [
        "Ġ",
        "a"
      ],
      [
        "Ġd",
        "a"
      ],
      [
        "e",
        "lim"
      ],
      [
        "us",
        "un"
      ],
      [
        "o",
        "r"
      ],
      [
        "Ġk",
        "a"
      ],
      [
        "Ġ",
        "g"
      ],
      [
        "e",
        "d"
      ],
      [
        "on",
        "uc"
      ],
      [
        "y",
        "i"
      ],
      [
        "si",
        "n"
      ],
      [
        "D",
        "usun"
      ],
      [
        "Dusun",
        "elim"
      ],
      [
        "Ġy",
        "a"
      ],
      [
        "Ġm",
        "i"
      ],
      [
        "B",
        "il"
      ],
      [
        "le",
        "r"
      ],
      [
        "Bil",
        "ge"
      ],
      [
        "e",
        "t"
      ],
      [
        "ĠS",
        "onuc"
      ],
      [
        "Ġ",
        "n"
      ],
      [
        "Ä",
        "±"
      ],
      [
        "Ġb",
        "uy"
      ],
      [
        "ul",
        "lan"
      ],
      [
        "Ġbuy",
        "uk"
      ],
      [
        "i",
        "ci"
      ],
      [
        "Ġ",
        "="
      ],
      [
        "ullan",
        "ici"
      ],
      [
        "g",
        "i"
      ],
      [
        "K",
        "ullanici"
      ],
      [
        "Ġda",
        "ha"
      ],
      [
        "Ġ",
        "2"
      ],
      [
        "Ġ",
        "t"
      ],
      [
        "Ġ",
        "sa"
      ],
      [
        "d",
        "a"
      ],
      [
        "Ġ",
        "h"
      ],
      [
        "i",
        "z"
      ],
      [
        "Ġv",
        "e"
      ],
      [
        "d",
        "e"
      ],
      [
        "t",
        "ur"
      ],
      [
        "Ġ",
        "B"
      ],
      [
        "s",
        "t"
      ],
      [
        "Ġo",
        "l"
      ],
      [
        "u",
        "z"
      ],
      [
        "i",
        "y"
      ],
      [
        "u",
        "m"
      ],
      [
        "Ġd",
        "e"
      ],
      [
        "d",
        "ir"
      ],
      [
        "c",
        "e"
      ],
      [
        "Ġ",
        "3"
      ],
      [
        "d",
        "i"
      ],
      [
        "Ġ",
        "Ġ"
      ],
      [
        "c",
        "a"
      ],
      [
        "e",
        "l"
      ],
      [
        "Ġbuyuk",
        "tur"
      ],
      [
        "Ġka",
        "c"
      ],
      [
        "Ġ",
        "ta"
      ],
      [
        "il",
        "ir"
      ],
      [
        "Ġ",
        "5"
      ],
      [
        "o",
        "p"
      ],
      [
        "e",
        "m"
      ],
      [
        "'",
        "t"
      ],
      [
        "Ġ",
        "4"
      ],
      [
        "r",
        "i"
      ],
      [
        "Ġ",
        "6"
      ],
      [
        "Ġv",
        "ar"
      ],
      [
        "k",
        "i"
      ],
      [
        "b",
        "ilir"
      ],
      [
        "Ġ",
        "z"
      ],
      [
        "y",
        "a"
      ],
      [
        "Ġ",
        "A"
      ],
      [
        "Ġi",
        "le"
      ],
      [
        "t",
        "i"
      ],
      [
        "Ġ1",
        "0"
      ],
      [
        "Ġ",
        "ge"
      ],
      [
        "ma",
        "k"
      ],
      [
        "Ġya",
        "p"
      ],
      [
        "Ġt",
        "op"
      ],
      [
        "Ġ",
        "8"
      ],
      [
        "Ġ",
        "7"
      ],
      [
        "Ġ",
        "+"
      ],
      [
        "Ġ",
        "ed"
      ],
      [
        "a",
        "y"
      ],
      [
        "e",
        "y"
      ],
      [
        "a",
        "k"
      ],
      [
        "Ġ",
        "ha"
      ],
      [
        "d",
        "im"
      ],
      [
        "t",
        "ir"
      ],
      [
        "l",
        "ir"
      ],
      [
        "Ġ",
        "p"
      ],
      [
        "Ġk",
        "i"
      ],
      [
        "Ġ",
        "f"
      ],
      [
        "la",
        "m"
      ],
      [
        "in",
        "i"
      ],
      [
        "Ġ",
        "9"
      ],
      [
        "\\",
        "\""
      ],
      [
        "Ã",
        "¼"
      ],
      [
        "li",
        "k"
      ],
      [
        "Ġ",
        "co"
      ],
      [
        "Ġ",
        "ci"
      ],
      [
        "uc",
        "uk"
      ],
      [
        "s",
        "e"
      ],
      [
        "Ġn",
        "e"
      ],
      [
        "m",
        "ek"
      ],
      [
        "Ġ",
        "T"
      ],
      [
        "a",
        "m"
      ],
      [
        "Ġ",
        "K"
      ],
      [
        "Ġi",
        "c"
      ],
      [
        "Ġed",
        "er"
      ],
      [
        "Ġ",
        "0"
      ],
      [
        "o",
        "k"
      ],
      [
        "ri",
        "nt"
      ],
      [
        "Ġ1",
        "2"
      ],
      [
        "a",
        "t"
      ],
      [
        "u",
        "t"
      ],
      [
        "Ġ",
        "ek"
      ],
      [
        "a",
        "z"
      ],
      [
        "o",
        "g"
      ],
      [
        "Ġk",
        "ucuk"
      ],
      [
        "an",
        "gi"
      ],
      [
        "Ġg",
        "un"
      ],
      [
        "Ġn",
        "ed"
      ],
      [
        "Ġ",
        "an"
      ],
      [
        "'",
        "d"
      ],
      [
        "in",
        "e"
      ],
      [
        ":",
        "\\"
      ],
      [
        "a",
        "si"
      ],
      [
        "Ġv",
        "er"
      ],
      [
        "d",
        "an"
      ],
      [
        "Ġy",
        "er"
      ],
      [
        "k",
        "a"
      ],
      [
        ".",
        "\"},"
      ],
      [
        "le",
        "m"
      ],
      [
        "li",
        "st"
      ],
      [
        "Ġ",
        "uz"
      ],
      [
        "o",
        "l"
      ],
      [
        "Ġol",
        "ur"
      ],
      [
        "Ġ",
        "on"
      ],
      [
        "iy",
        "or"
      ],
      [
        "Ġy",
        "ar"
      ],
      [
        "Ġic",
        "in"
      ],
      [
        "k",
        "ar"
      ],
      [
        "i",
        "s"
      ],
      [
        "Ġk",
        "o"
      ],
      [
        "u",
        "g"
      ],
      [
        "Ġ1",
        "1"
      ],
      [
        "r",
        "a"
      ],
      [
        "Ġs",
        "e"
      ],
      [
        "d",
        "en"
      ],
      [
        "n",
        "e"
      ],
      [
        "Ġco",
        "k"
      ],
      [
        "B",
        "ir"
      ],
      [
        "Ġ",
        "e"
      ],
      [
        "b",
        "a"
      ],
      [
        "Ġ",
        "en"
      ],
      [
        "Ġ",
        "c"
      ],
      [
        "Ġsa",
        "yi"
      ],
      [
        "`",
        "`"
      ],
      [
        "Ġ",
        "ca"
      ],
      [
        "asi",
        "l"
      ],
      [
        "Ġ",
        "O"
      ],
      [
        "Ġb",
        "a"
      ],
      [
        "en",
        "in"
      ],
      [
        "sa",
        "n"
      ],
      [
        "p",
        "rint"
      ],
      [
        "Ã",
        "§"
      ],
      [
        "Ġ",
        "I"
      ],
      [
        "Å",
        "Ł"
      ],
      [
        "Ġ",
        "H"
      ],
      [
        "ĠB",
        "ir"
      ],
      [
        "ĠĠ",
        "Ġ"
      ],
      [
        "Ġ",
        "in"
      ],
      [
        "Ġtop",
        "lar"
      ],
      [
        "Ġ",
        "Y"
      ],
      [
        "Ġya",
        "z"
      ],
      [
        "en",
        "i"
      ],
      [
        "Ġn",
        "asil"
      ],
      [
        "Ġned",
        "ir"
      ],
      [
        "i",
        "k"
      ],
      [
        "Ġci",
        "kar"
      ],
      [
        "er",
        "e"
      ],
      [
        "b",
        "i"
      ],
      [
        "si",
        "y"
      ],
      [
        "Ġ",
        "-"
      ],
      [
        "angi",
        "si"
      ],
      [
        "Ġ",
        "E"
      ],
      [
        "lar",
        "i"
      ],
      [
        "ler",
        "i"
      ],
      [
        "Ġ",
        "C"
      ],
      [
        "a",
        "l"
      ],
      [
        "Ġb",
        "as"
      ],
      [
        "Ä±",
        "n"
      ],
      [
        "Ġde",
        "g"
      ],
      [
        "Ġ",
        "r"
      ],
      [
        "y",
        "im"
      ],
      [
        "Ġ",
        "D"
      ],
      [
        "Ġb",
        "il"
      ],
      [
        "Ġ",
        "G"
      ],
      [
        "Ä",
        "Ł"
      ],
      [
        "Ä±",
        "m"
      ],
      [
        "iy",
        "e"
      ],
      [
        "an",
        "i"
      ],
      [
        "Ġmi",
        "sin"
      ],
      [
        "le",
        "n"
      ],
      [
        "li",
        "s"
      ],
      [
        "g",
        "in"
      ],
      [
        "Ġi",
        "st"
      ],
      [
        "Ġta",
        "ne"
      ],
      [
        "Ġ2",
        "0"
      ],
      [
        "Ġd",
        "og"
      ],
      [
        "list",
        "e"
      ],
      [
        "Ġ",
        "ar"
      ],
      [
        "Ġ",
        "si"
      ],
      [
        "Ġ",
        "M"
      ],
      [
        "Ġb",
        "u"
      ],
      [
        "Ġtoplar",
        "iz"
      ],
      [
        "m",
        "e"
      ],
      [
        "Ġo",
        "la"
      ],
      [
        "sin",
        "i"
      ],
      [
        "iyor",
        "um"
      ],
      [
        "Ġi",
        "yi"
      ],
      [
        "Ġs",
        "o"
      ],
      [
        "am",
        "an"
      ],
      [
        "Ġ",
        "lir"
      ],
      [
        "t",
        "e"
      ],
      [
        "Ġ1",
        "5"
      ],
      [
        "Ġa",
        "y"
      ],
      [
        "Ġ",
        "el"
      ],
      [
        "ur",
        "k"
      ],
      [
        "Ġa",
        "ma"
      ],
      [
        "Ġg",
        "er"
      ],
      [
        "Ġg",
        "or"
      ],
      [
        "r",
        "u"
      ],
      [
        "un",
        "u"
      ],
      [
        "y",
        "ar"
      ],
      [
        "Ġ",
        "et"
      ],
      [
        "Ġk",
        "ere"
      ],
      [
        "Ġk",
        "ar"
      ],
      [
        "g",
        "u"
      ],
      [
        "Ġs",
        "on"
      ],
      [
        "Ġz",
        "aman"
      ],
      [
        "r",
        "e"
      ],
      [
        "Ġlir",
        "a"
      ],
      [
        "d",
        "ur"
      ],
      [
        "Ġy",
        "ok"
      ],
      [
        "Ġ",
        "Dusunelim"
      ],
      [
        "Ġs",
        "or"
      ],
      [
        "Ġi",
        "se"
      ],
      [
        "Ġh",
        "er"
      ],
      [
        ")",
        ")"
      ],
      [
        "li",
        "n"
      ],
      [
        "n",
        "print"
      ],
      [
        "Ġg",
        "i"
      ],
      [
        "Ġbil",
        "gi"
      ],
      [
        "Ġ",
        "x"
      ],
      [
        "Ġb",
        "i"
      ],
      [
        "siy",
        "on"
      ],
      [
        "on",
        "k"
      ],
      [
        "Ġsa",
        "y"
      ],
      [
        "g",
        "r"
      ],
      [
        "in",
        "da"
      ],
      [
        "onk",
        "siyon"
      ],
      [
        "Ġ1",
        "4"
      ],
      [
        "c",
        "ek"
      ],
      [
        "Ġs",
        "ey"
      ],
      [
        "Ġyar",
        "dim"
      ],
      [
        "an",
        "a"
      ],
      [
        "Ġf",
        "onksiyon"
      ],
      [
        "Ġ1",
        "8"
      ],
      [
        "Ġki",
        "ta"
      ],
      [
        "ĠO",
        "n"
      ],
      [
        "Ġsa",
        "at"
      ],
      [
        "Ġol",
        "d"
      ],
      [
        "n",
        "in"
      ],
      [
        "y",
        "or"
      ],
      [
        "Ġ",
        "Bilge"
      ],
      [
        "di",
        "k"
      ],
      [
        "s",
        "ek"
      ],
      [
        "Ġ1",
        "6"
      ],
      [
        "Ġcikar",
        "ir"
      ],
      [
        "Ġel",
        "ma"
      ],
      [
        "Ġz",
        "ek"
      ],
      [
        "Ġk",
        "us"
      ],
      [
        "Ġvar",
        "di"
      ],
      [
        "y",
        "an"
      ],
      [
        "Ġb",
        "o"
      ],
      [
        "Ġk",
        "on"
      ],
      [
        "ma",
        "m"
      ],
      [
        "lar",
        "in"
      ],
      [
        "e",
        "sin"
      ],
      [
        "Ġk",
        "en"
      ],
      [
        "Ġcikarir",
        "iz"
      ],
      [
        "Ġ1",
        "7"
      ],
      [
        "Ġka",
        "l"
      ],
      [
        "Ġa",
        "dim"
      ],
      [
        "``",
        "`"
      ],
      [
        "Ġ1",
        "3"
      ],
      [
        "Ä±",
        "r"
      ],
      [
        "ĠT",
        "urk"
      ],
      [
        "a",
        "bilir"
      ],
      [
        "et",
        "in"
      ],
      [
        "Ġyap",
        "ay"
      ],
      [
        "ĠOn",
        "ce"
      ],
      [
        "n",
        "a"
      ],
      [
        "Ġd",
        "on"
      ],
      [
        "la",
        "ma"
      ],
      [
        "Ġca",
        "lis"
      ],
      [
        "Ġk",
        "elim"
      ],
      [
        "Ġuz",
        "er"
      ],
      [
        "sa",
        "yar"
      ],
      [
        "Ġola",
        "bilir"
      ],
      [
        "Ġd",
        "uy"
      ],
      [
        "Ġ1",
        "9"
      ],
      [
        "ed",
        "e"
      ],
      [
        "Ġdeg",
        "il"
      ],
      [
        "Ġtop",
        "lam"
      ],
      [
        "Ġek",
        "le"
      ],
      [
        "v",
        "a"
      ],
      [
        "li",
        "yor"
      ],
      [
        "Ġol",
        "ma"
      ],
      [
        "Ġkucuk",
        "tur"
      ],
      [
        "ir",
        "im"
      ],
      [
        "Ġh",
        "angisi"
      ],
      [
        "k",
        "u"
      ],
      [
        "si",
        "m"
      ],
      [
        "ca",
        "k"
      ],
      [
        "Ġ",
        "\\\""
      ],
      [
        "Ġs",
        "enin"
      ],
      [
        "Ġek",
        "ler"
      ],
      [
        "Ġkita",
        "p"
      ],
      [
        "st",
        "ir"
      ],
      [
        "n",
        "i"
      ],
      [
        "Ġs",
        "u"
      ],
      [
        "Ġde",
        "gi"
      ],
      [
        "Ġin",
        "san"
      ],
      [
        "Ġm",
        "u"
      ],
      [
        "Ġdog",
        "ru"
      ],
      [
        "g",
        "im"
      ],
      [
        "Ġm",
        "o"
      ],
      [
        "Ġbilgi",
        "sayar"
      ],
      [
        "e",
        "v"
      ],
      [
        "i",
        "lim"
      ],
      [
        "Ġ",
        "#"
      ],
      [
        "ĠB",
        "en"
      ],
      [
        "Ġo",
        "r"
      ],
      [
        "H",
        "angisi"
      ],
      [
        "Ġt",
        "ek"
      ],
      [
        "ey",
        "e"
      ],
      [
        "Ġuzer",
        "ine"
      ],
      [
        "d",
        "ar"
      ],
      [
        "er",
        "s"
      ],
      [
        "Ġka",
        "lem"
      ],
      [
        "ug",
        "un"
      ],
      [
        "Ġb",
        "ul"
      ],
      [
        "t",
        "h"
      ],
      [
        "Ġd",
        "en"
      ],
      [
        "ek",
        "i"
      ],
      [
        "Ġyardim",
        "ci"
      ],
      [
        "Ġka",
        "dar"
      ],
      [
        "ki",
        "ka"
      ],
      [
        "Ã¼",
        "r"
      ],
      [
        ")",
        "\"}]}"
      ],
      [
        "a",
        "c"
      ],
      [
        "Ġzek",
        "a"
      ],
      [
        "Ġda",
        "kika"
      ],
      [
        "Ġh",
        "is"
      ],
      [
        "er",
        "ha"
      ],
      [
        "Ġ",
        "Ã§"
      ],
      [
        "Ġy",
        "ani"
      ],
      [
        "Ġan",
        "lam"
      ],
      [
        "erha",
        "ba"
      ],
      [
        "ur",
        "n"
      ],
      [
        "Ġo",
        "gr"
      ],
      [
        "uy",
        "or"
      ],
      [
        "y",
        "le"
      ],
      [
        "Ġ",
        "P"
      ],
      [
        "er",
        "i"
      ],
      [
        "Ġm",
        "a"
      ],
      [
        "Ġ",
        "uy"
      ],
      [
        "Ġa",
        "l"
      ],
      [
        "uz",
        "el"
      ],
      [
        "Ġy",
        "uz"
      ],
      [
        "Ġge",
        "c"
      ],
      [
        "i",
        "c"
      ],
      [
        "Ġg",
        "o"
      ],
      [
        "Ġp",
        "ar"
      ],
      [
        "Ġp",
        "rint"
      ],
      [
        "sin",
        "da"
      ],
      [
        "Ġyer",
        "de"
      ],
      [
        "Ġi",
        "s"
      ],
      [
        "ĠB",
        "u"
      ],
      [
        "ed",
        "i"
      ],
      [
        "k",
        "en"
      ],
      [
        "l",
        "u"
      ],
      [
        "lar",
        "ak"
      ],
      [
        "Ġekler",
        "sek"
      ],
      [
        "et",
        "urn"
      ],
      [
        "iz",
        "i"
      ],
      [
        "Ġgi",
        "bi"
      ],
      [
        "y",
        "th"
      ],
      [
        "yth",
        "on"
      ],
      [
        "Ġo",
        "larak"
      ],
      [
        "Ġekle",
        "dik"
      ],
      [
        "Ġ",
        "'"
      ],
      [
        "Ġk",
        "ullan"
      ],
      [
        "ler",
        "in"
      ],
      [
        "Ġr",
        "eturn"
      ],
      [
        "sa",
        "m"
      ],
      [
        "en",
        "im"
      ],
      [
        "em",
        "li"
      ],
      [
        "ay",
        "ir"
      ],
      [
        "i",
        "t"
      ],
      [
        "Ã",
        "¶"
      ],
      [
        "ĠG",
        "un"
      ],
      [
        "Ġsor",
        "u"
      ],
      [
        "Ġ",
        "il"
      ],
      [
        "si",
        "k"
      ],
      [
        "Ġned",
        "en"
      ],
      [
        "Ġson",
        "ra"
      ],
      [
        "Ġhis",
        "s"
      ],
      [
        "l",
        "uk"
      ],
      [
        "Ġ",
        "N"
      ],
      [
        "Ġh",
        "ar"
      ],
      [
        "Ġde",
        "mek"
      ],
      [
        "Ġ",
        "ce"
      ],
      [
        "de",
        "f"
      ],
      [
        "Ġol",
        "us"
      ],
      [
        "1",
        "0"
      ],
      [
        "a",
        "p"
      ],
      [
        "g",
        "ini"
      ],
      [
        "Ġbir",
        "az"
      ],
      [
        "Ġa",
        "d"
      ],
      [
        "Ġan",
        "la"
      ],
      [
        "ar",
        "p"
      ],
      [
        "ĠS",
        "a"
      ],
      [
        "Ġse",
        "v"
      ],
      [
        "e",
        "bilir"
      ],
      [
        "ta",
        "r"
      ],
      [
        "Ġha",
        "f"
      ],
      [
        "Ġyap",
        "ar"
      ],
      [
        "S",
        "onuc"
      ],
      [
        "Ġb",
        "ol"
      ],
      [
        "Ġold",
        "ug"
      ],
      [
        "Ġd",
        "usun"
      ],
      [
        "Ġs",
        "ur"
      ],
      [
        "Ġde",
        "ÄŁ"
      ],
      [
        "Ġogr",
        "en"
      ],
      [
        "r",
        "an"
      ],
      [
        "ti",
        "k"
      ],
      [
        "Ã¼",
        "n"
      ],
      [
        "t",
        "en"
      ],
      [
        "Ġy",
        "an"
      ],
      [
        "Ġa",
        "lir"
      ],
      [
        "Ġon",
        "emli"
      ],
      [
        "ar",
        "k"
      ],
      [
        "Ġ",
        "sag"
      ],
      [
        "us",
        "t"
      ],
      [
        "Ġk",
        "ur"
      ],
      [
        "Ġk",
        "im"
      ],
      [
        "g",
        "er"
      ],
      [
        "Ġuz",
        "un"
      ],
      [
        "m",
        "is"
[...]
